#ifndef PCD_MODEL_H
#define PCD_MODEL_H


unsigned int PCD_Model_len = 9184;
unsigned char PCD_Model[] = {
 0x28, 0x00, 0x00, 0x00, 0x54, 0x46, 0x4c, 0x33, 0x00, 0x00, 0x00, 0x00,
  0x00, 0x00, 0x00, 0x00, 0x00, 0x00, 0x00, 0x00, 0x00, 0x00, 0x12, 0x00,
  0x1c, 0x00, 0x04, 0x00, 0x08, 0x00, 0x0c, 0x00, 0x10, 0x00, 0x14, 0x00,
  0x00, 0x00, 0x18, 0x00, 0x12, 0x00, 0x00, 0x00, 0x03, 0x00, 0x00, 0x00,
  0x70, 0x23, 0x00, 0x00, 0x50, 0x1d, 0x00, 0x00, 0x38, 0x1d, 0x00, 0x00,
  0x3c, 0x00, 0x00, 0x00, 0x04, 0x00, 0x00, 0x00, 0x01, 0x00, 0x00, 0x00,
  0x0c, 0x00, 0x00, 0x00, 0x08, 0x00, 0x0c, 0x00, 0x04, 0x00, 0x08, 0x00,
  0x08, 0x00, 0x00, 0x00, 0x08, 0x00, 0x00, 0x00, 0x0d, 0x00, 0x00, 0x00,
  0x13, 0x00, 0x00, 0x00, 0x6d, 0x69, 0x6e, 0x5f, 0x72, 0x75, 0x6e, 0x74,
  0x69, 0x6d, 0x65, 0x5f, 0x76, 0x65, 0x72, 0x73, 0x69, 0x6f, 0x6e, 0x00,
  0x0e, 0x00, 0x00, 0x00, 0xf0, 0x1c, 0x00, 0x00, 0xdc, 0x1c, 0x00, 0x00,
  0xd0, 0x1b, 0x00, 0x00, 0x7c, 0x1b, 0x00, 0x00, 0x58, 0x1b, 0x00, 0x00,
  0x34, 0x1b, 0x00, 0x00, 0xe0, 0x0f, 0x00, 0x00, 0xbc, 0x01, 0x00, 0x00,
  0x78, 0x00, 0x00, 0x00, 0x6c, 0x00, 0x00, 0x00, 0x58, 0x00, 0x00, 0x00,
  0x44, 0x00, 0x00, 0x00, 0x30, 0x00, 0x00, 0x00, 0x04, 0x00, 0x00, 0x00,
  0x66, 0xe4, 0xff, 0xff, 0x04, 0x00, 0x00, 0x00, 0x10, 0x00, 0x00, 0x00,
  0x31, 0x2e, 0x35, 0x2e, 0x30, 0x00, 0x00, 0x00, 0x00, 0x00, 0x00, 0x00,
  0x00, 0x00, 0x00, 0x00, 0x00, 0x00, 0x00, 0x00, 0x00, 0x00, 0x00, 0x00,
  0x00, 0x00, 0x00, 0x00, 0x6c, 0xdd, 0xff, 0xff, 0x00, 0x00, 0x00, 0x00,
  0x00, 0x00, 0x00, 0x00, 0x00, 0x00, 0x00, 0x00, 0x7c, 0xdd, 0xff, 0xff,
  0x00, 0x00, 0x00, 0x00, 0x00, 0x00, 0x00, 0x00, 0x00, 0x00, 0x00, 0x00,
  0x8c, 0xdd, 0xff, 0xff, 0x00, 0x00, 0x00, 0x00, 0x00, 0x00, 0x00, 0x00,
  0x00, 0x00, 0x00, 0x00, 0x9c, 0xdd, 0xff, 0xff, 0x00, 0x00, 0x00, 0x00,
  0xc6, 0xe4, 0xff, 0xff, 0x04, 0x00, 0x00, 0x00, 0x2c, 0x01, 0x00, 0x00,
  0x90, 0xdf, 0x8c, 0xbf, 0xe2, 0x4e, 0x63, 0x3e, 0x43, 0xbd, 0x8a, 0xbf,
  0x0e, 0x21, 0x2e, 0xbf, 0x3f, 0xaa, 0xa7, 0x3e, 0xe8, 0xc3, 0x93, 0x3b,
  0xe5, 0xe3, 0xad, 0xbf, 0xcd, 0x07, 0x1d, 0x3f, 0x4d, 0x1a, 0x47, 0x3f,
  0x42, 0x11, 0xbe, 0x3e, 0xbd, 0x54, 0xc9, 0xbf, 0xd1, 0xe8, 0xa9, 0x3f,
  0x09, 0x0a, 0xdc, 0x3e, 0x5c, 0x0e, 0x1e, 0xbf, 0x49, 0x0f, 0x87, 0xbf,
  0xa3, 0xeb, 0x98, 0x3f, 0xf7, 0xa5, 0x54, 0x3f, 0xf2, 0x79, 0xfe, 0x3e,
  0x18, 0x6f, 0xec, 0xbc, 0x0d, 0xae, 0x9c, 0x3e, 0x19, 0xf5, 0x55, 0xbf,
  0x6f, 0x14, 0xc2, 0x3e, 0x85, 0x56, 0xa2, 0xbf, 0xc4, 0xa1, 0x5e, 0x3f,
  0x67, 0x9b, 0xc4, 0xbe, 0xc4, 0x93, 0x2a, 0x3f, 0x92, 0x36, 0xc5, 0x3c,
  0xde, 0x59, 0xde, 0x3d, 0x4c, 0x9a, 0x1d, 0xbf, 0x8c, 0x63, 0x5c, 0xbe,
  0x2a, 0x61, 0x40, 0x3f, 0x10, 0xc5, 0x51, 0xbf, 0x1b, 0xe2, 0x83, 0x3f,
  0xba, 0x44, 0x82, 0x3e, 0x2d, 0xf0, 0xb1, 0x3e, 0x72, 0x70, 0x67, 0x3e,
  0xfe, 0x70, 0x32, 0x3e, 0x37, 0xef, 0x72, 0x3e, 0x85, 0xfc, 0xe0, 0xbe,
  0x97, 0x3c, 0x31, 0xbf, 0x3e, 0x53, 0x40, 0x3f, 0x1f, 0x95, 0x9d, 0xbf,
  0xb1, 0xc5, 0xe1, 0x3e, 0x52, 0xa3, 0xbc, 0x3e, 0x08, 0x3f, 0xa3, 0xbf,
  0x58, 0x8e, 0x99, 0xbf, 0x6d, 0x06, 0xcc, 0xbd, 0xad, 0x24, 0x81, 0xbf,
  0xac, 0x4d, 0xb0, 0x3f, 0x2e, 0xb8, 0x19, 0xc0, 0x56, 0x46, 0x19, 0x3f,
  0xcb, 0xcf, 0xb7, 0xbf, 0x95, 0xc9, 0xac, 0xbf, 0xb5, 0x77, 0x41, 0x3e,
  0x91, 0xfd, 0xad, 0x3e, 0x65, 0xdd, 0xb9, 0x3e, 0x2c, 0x12, 0x39, 0xbf,
  0x77, 0xf8, 0xf2, 0x3e, 0xd7, 0x68, 0x06, 0xbf, 0x2a, 0x26, 0xd7, 0x3f,
  0xdc, 0xbb, 0x66, 0xbf, 0x85, 0xa0, 0x7a, 0xbf, 0x52, 0x15, 0xef, 0xbe,
  0xcc, 0xbc, 0x82, 0xbf, 0x3d, 0x6b, 0x21, 0x3f, 0x2a, 0x8a, 0xed, 0xbf,
  0x1b, 0xdb, 0x8e, 0x3f, 0x20, 0xbe, 0x36, 0x3f, 0xb8, 0x19, 0xe9, 0xbe,
  0x60, 0x3b, 0x78, 0x3f, 0x6b, 0xd4, 0x64, 0xbf, 0x5c, 0xc9, 0xd8, 0xbf,
  0x54, 0xfc, 0x06, 0xc0, 0x5f, 0x86, 0xbc, 0x3f, 0x91, 0x38, 0x9d, 0xbe,
  0x00, 0x00, 0x00, 0x00, 0x00, 0x00, 0x00, 0x00, 0x06, 0xe6, 0xff, 0xff,
  0x04, 0x00, 0x00, 0x00, 0x10, 0x0e, 0x00, 0x00, 0x25, 0x57, 0x69, 0x3c,
  0x5a, 0xc3, 0x14, 0x3d, 0xfc, 0x8f, 0x5c, 0x3f, 0x38, 0x60, 0xd2, 0x3d,
  0x6e, 0x3f, 0xde, 0x3e, 0x26, 0x5a, 0xef, 0xbe, 0xe8, 0x21, 0x9a, 0x3e,
  0xc0, 0xf8, 0xca, 0xbe, 0x0f, 0xfe, 0x93, 0x3d, 0x76, 0x8c, 0x53, 0xbe,
  0x8a, 0x09, 0xc6, 0x3e, 0x79, 0x92, 0x56, 0xbe, 0xe4, 0x79, 0xe0, 0x3e,
  0x1f, 0x26, 0x4e, 0x3f, 0x15, 0x17, 0x08, 0xbd, 0xc3, 0x40, 0x96, 0x3d,
  0x8c, 0x81, 0x2e, 0x3f, 0x35, 0x69, 0x9f, 0xbf, 0x16, 0xac, 0x00, 0xbf,
  0x04, 0x78, 0x7d, 0xbe, 0x1a, 0xec, 0xaf, 0xbe, 0x7c, 0xff, 0x8e, 0xbf,
  0x69, 0x32, 0xc6, 0x3d, 0xe8, 0x33, 0x09, 0x3e, 0xff, 0xd2, 0x79, 0x3d,
  0x4b, 0x52, 0x38, 0xbf, 0xf7, 0xa2, 0x80, 0x3e, 0x1c, 0x10, 0xd0, 0x3d,
  0x85, 0x2c, 0xf6, 0x3e, 0x60, 0xfa, 0x09, 0x3e, 0xe2, 0xc7, 0xea, 0xbe,
  0x37, 0xcd, 0x39, 0x3f, 0x17, 0xf1, 0x82, 0x3e, 0x1d, 0x78, 0x52, 0xbf,
  0x7a, 0x79, 0x7b, 0xbe, 0x85, 0xf4, 0x0b, 0xbe, 0xa3, 0x38, 0x25, 0xbf,
  0xe5, 0xa1, 0x2b, 0xbe, 0x8d, 0x66, 0x4c, 0x3e, 0x28, 0x6c, 0xea, 0xbe,
  0x11, 0x1f, 0x25, 0xbf, 0x96, 0x18, 0x0b, 0x3e, 0xec, 0xbf, 0x8c, 0x3e,
  0x1a, 0xba, 0x89, 0x3e, 0x9c, 0x00, 0x91, 0x3d, 0xc8, 0xb0, 0x08, 0x3d,
  0x32, 0x88, 0x74, 0xbd, 0xe7, 0xaf, 0x8a, 0xbe, 0x28, 0x80, 0xfb, 0x3e,
  0xcf, 0x6a, 0xba, 0x3d, 0x81, 0xf9, 0xe7, 0x3e, 0xbe, 0xd2, 0x16, 0xbf,
  0x36, 0xd1, 0x82, 0xbe, 0x24, 0x65, 0xf8, 0x3d, 0x74, 0x07, 0x96, 0xbe,
  0x16, 0x1b, 0xb2, 0xbe, 0xa2, 0xda, 0x0a, 0x3f, 0x18, 0x1d, 0x44, 0x3f,
  0xf9, 0xbc, 0x8a, 0x3d, 0x31, 0x09, 0x4a, 0x3f, 0x91, 0xcf, 0x4b, 0x3d,
  0x4a, 0x02, 0x15, 0x3e, 0xdf, 0x06, 0x95, 0x3e, 0xfc, 0x73, 0x7d, 0xbf,
  0x67, 0xa4, 0x9c, 0x3e, 0x38, 0x3f, 0x36, 0xbe, 0xc1, 0xc2, 0xed, 0x3d,
  0x60, 0xa5, 0x78, 0xbd, 0xf6, 0x42, 0x4f, 0xbe, 0x25, 0xbc, 0xa0, 0x3e,
  0x48, 0xbb, 0xca, 0xbd, 0x00, 0x7f, 0xe4, 0xbd, 0xb1, 0xd9, 0x8d, 0xbe,
  0x72, 0xe6, 0xd7, 0x3e, 0x63, 0xf8, 0xba, 0xbd, 0xe7, 0x06, 0x4e, 0x3e,
  0x14, 0x2d, 0x9d, 0x3d, 0x71, 0x87, 0x9d, 0xbe, 0xe6, 0x6c, 0xa6, 0xbe,
  0xcc, 0xbe, 0xe9, 0x3e, 0x74, 0xc6, 0x07, 0xbf, 0xca, 0x57, 0xe6, 0xbe,
  0x08, 0x61, 0x24, 0x3f, 0x62, 0xca, 0x4d, 0x3e, 0x17, 0xf2, 0x1a, 0xbe,
  0x0c, 0x15, 0xec, 0xb8, 0xf5, 0xec, 0x74, 0xbd, 0x8a, 0x07, 0x64, 0x3d,
  0xf0, 0x28, 0x2d, 0x3e, 0xf8, 0x68, 0xb8, 0x3e, 0x7c, 0x7a, 0x8f, 0x3e,
  0x3c, 0x13, 0x30, 0x3e, 0x21, 0x06, 0x36, 0x3e, 0x72, 0xc8, 0x73, 0xbd,
  0x5a, 0xa4, 0xc2, 0x3e, 0xc2, 0x65, 0xb4, 0xbf, 0xe0, 0xb1, 0x2d, 0xbf,
  0x4f, 0x7f, 0xa3, 0xbd, 0x82, 0xe4, 0x0a, 0xbf, 0x65, 0xa0, 0xee, 0xbd,
  0xf1, 0x46, 0x58, 0xbf, 0x1c, 0xc8, 0xcb, 0x3e, 0x9d, 0xc1, 0x1d, 0x3f,
  0xca, 0xac, 0x8c, 0x3e, 0xc8, 0x84, 0x9f, 0x3d, 0x87, 0xc1, 0x2a, 0x3e,
  0x59, 0xc0, 0x2e, 0xbd, 0x8f, 0x2f, 0xaf, 0xbe, 0x31, 0xad, 0x7f, 0x3f,
  0xc8, 0x40, 0x50, 0xbf, 0x1a, 0x92, 0x1f, 0x3f, 0x00, 0x8f, 0x06, 0x3f,
  0x2d, 0x88, 0xa5, 0xbe, 0x9e, 0x46, 0x8f, 0xbf, 0xa8, 0x1a, 0xc0, 0x3d,
  0x8f, 0x79, 0xe6, 0xbe, 0xa4, 0xc4, 0x4b, 0x3f, 0x68, 0x72, 0x72, 0x3f,
  0x75, 0xd0, 0x34, 0xbe, 0x83, 0xf3, 0xd6, 0x3c, 0xa3, 0xcd, 0x0b, 0x3e,
  0xc9, 0x0a, 0x36, 0x3e, 0x73, 0xf4, 0x0a, 0x3f, 0xbb, 0x12, 0x5a, 0xbf,
  0xa7, 0x26, 0x92, 0xbd, 0x23, 0xed, 0xe1, 0xbe, 0xd1, 0x40, 0x01, 0xbf,
  0x9c, 0x9d, 0x51, 0x3e, 0x0b, 0x2e, 0x32, 0xbf, 0xc4, 0xa3, 0xe4, 0x3d,
  0x5c, 0x42, 0x55, 0x3d, 0x85, 0x5d, 0x48, 0xbe, 0xb5, 0x57, 0xbc, 0xbe,
  0x8c, 0xaa, 0x81, 0xbe, 0x2d, 0xcb, 0x29, 0x3b, 0x6e, 0x7f, 0x47, 0x3d,
  0xc1, 0x0f, 0x81, 0x3e, 0x7f, 0x7d, 0x90, 0xbe, 0xd9, 0xd4, 0xb1, 0x3d,
  0x56, 0x30, 0x94, 0xbf, 0x8e, 0x4f, 0xa0, 0xbd, 0x2b, 0x24, 0x81, 0xbe,
  0xd9, 0x89, 0x73, 0xbe, 0x31, 0x69, 0x8d, 0xbf, 0x58, 0x0d, 0xc3, 0xbe,
  0xc3, 0xcc, 0x63, 0xbf, 0x18, 0xb4, 0x68, 0xbe, 0x1b, 0x3f, 0x8c, 0x3e,
  0xa2, 0x7c, 0x42, 0xbf, 0x74, 0x82, 0xd2, 0xbe, 0x68, 0xa7, 0x48, 0xbe,
  0x60, 0x2f, 0x02, 0x3e, 0x87, 0x3f, 0xbb, 0x3e, 0xe3, 0x34, 0x34, 0xbf,
  0xaa, 0x12, 0xc5, 0xbc, 0x97, 0x91, 0x81, 0xbe, 0xcc, 0x49, 0x28, 0x3f,
  0x53, 0x06, 0x83, 0xbe, 0x27, 0x98, 0x8c, 0xbe, 0x30, 0xd5, 0xa8, 0xbe,
  0x16, 0x50, 0x7d, 0x3d, 0x89, 0xd1, 0xc8, 0xbf, 0x3c, 0xb1, 0x8e, 0x3c,
  0xf9, 0x3c, 0xc5, 0x3e, 0x0a, 0x60, 0xb4, 0x3e, 0xe1, 0x46, 0xc7, 0xbe,
  0x6a, 0xd8, 0x46, 0x3e, 0x35, 0x41, 0xbf, 0x3d, 0xc5, 0xbd, 0x76, 0xbf,
  0xc7, 0x82, 0xb7, 0xbe, 0x92, 0x6e, 0x5d, 0x3c, 0xcb, 0xb9, 0x46, 0xbf,
  0x6f, 0x34, 0x6d, 0xbe, 0xf7, 0xd8, 0x61, 0xbf, 0xd7, 0x32, 0xd4, 0xbe,
  0x49, 0xd7, 0xb7, 0xbd, 0xcc, 0x83, 0x3b, 0xbe, 0x8e, 0x21, 0x13, 0xbf,
  0xd9, 0xea, 0x6b, 0xbf, 0xb0, 0xaf, 0x8a, 0x3e, 0x80, 0x9a, 0x51, 0x3e,
  0xab, 0x62, 0x82, 0xbe, 0x33, 0x7c, 0xce, 0xbc, 0x44, 0xda, 0xd2, 0x3d,
  0xd1, 0xfb, 0x04, 0x3f, 0x59, 0x22, 0x2a, 0xbf, 0xe8, 0xef, 0x6f, 0xbf,
  0x11, 0x1a, 0x3b, 0x3f, 0x39, 0x08, 0xd5, 0x3e, 0xa4, 0x78, 0x60, 0xbe,
  0xe0, 0xa9, 0x9d, 0xbf, 0x41, 0x98, 0x46, 0xbe, 0x4f, 0x74, 0x40, 0xbe,
  0x64, 0x35, 0x24, 0xbf, 0x20, 0x2c, 0xeb, 0xbf, 0x81, 0x66, 0x12, 0x3f,
  0x52, 0x8c, 0x6f, 0xbe, 0x3b, 0x68, 0x09, 0x3e, 0x48, 0x16, 0x56, 0xbd,
  0xd0, 0xc6, 0xfe, 0x3d, 0x14, 0x7f, 0x23, 0x3f, 0xa9, 0x8d, 0xea, 0xbd,
  0x8d, 0x7d, 0x8b, 0xbe, 0x21, 0xbf, 0x82, 0xbe, 0x38, 0x87, 0x8d, 0xbf,
  0xa7, 0x7d, 0x0e, 0x3f, 0x38, 0x13, 0x19, 0x3e, 0x2d, 0xaa, 0xb2, 0xbf,
  0x17, 0x2e, 0x23, 0x3e, 0xc5, 0x2e, 0x8c, 0xbd, 0x50, 0x42, 0x6a, 0xbd,
  0x63, 0x75, 0x9e, 0x3e, 0x8a, 0xc8, 0x0c, 0x3f, 0x64, 0x90, 0x49, 0xbe,
  0xcf, 0xdd, 0x25, 0x3f, 0x58, 0x28, 0x97, 0x3e, 0x64, 0x17, 0x91, 0x3e,
  0xc2, 0x04, 0xa8, 0x3e, 0xc1, 0x4a, 0x67, 0xbd, 0xd0, 0xe1, 0xfd, 0x3e,
  0x22, 0xd4, 0x45, 0x3f, 0xd7, 0xda, 0x39, 0x3e, 0x9a, 0xfe, 0x66, 0x3e,
  0x13, 0xa5, 0x38, 0x3f, 0x59, 0x24, 0xa8, 0xbe, 0x8f, 0xc0, 0xbb, 0xbf,
  0x6d, 0x9a, 0xc5, 0x3e, 0x57, 0xa4, 0x1b, 0xbf, 0xe4, 0x29, 0x4f, 0xbf,
  0xe3, 0x22, 0x52, 0xbe, 0x81, 0x2b, 0x3c, 0x3e, 0x8b, 0xc9, 0x10, 0xbd,
  0xe7, 0x62, 0x64, 0x3f, 0x20, 0x6d, 0xd6, 0x3e, 0xc8, 0xbc, 0xb4, 0xbe,
  0x6d, 0xfc, 0xa0, 0xbf, 0xc1, 0x3f, 0x12, 0xbe, 0xe7, 0x92, 0x8d, 0xbf,
  0x44, 0x0a, 0x9b, 0x3f, 0x7a, 0xc7, 0x92, 0xbe, 0x28, 0x43, 0x96, 0xbd,
  0x7a, 0x4d, 0x6e, 0x3e, 0x58, 0x2e, 0x84, 0xbe, 0x8a, 0xf7, 0x16, 0xbd,
  0x80, 0x47, 0xbc, 0xbe, 0x30, 0x9c, 0xd0, 0x3e, 0x6b, 0x18, 0x0e, 0x3f,
  0x4d, 0x3a, 0x38, 0xbe, 0x42, 0x1b, 0x19, 0xbd, 0x2a, 0x6a, 0x51, 0x3e,
  0x44, 0xc6, 0x89, 0x3f, 0x2c, 0x25, 0xbc, 0x3d, 0x9e, 0x7c, 0x35, 0x3f,
  0x67, 0x04, 0xff, 0x3e, 0xc6, 0x46, 0xb0, 0x3f, 0xc6, 0x9d, 0x77, 0xbe,
  0x37, 0x60, 0x9f, 0x3e, 0xa4, 0x37, 0x20, 0xbd, 0x65, 0x85, 0xec, 0x3d,
  0x1c, 0x44, 0x58, 0xbe, 0x4d, 0xd8, 0x1b, 0xbe, 0xb7, 0xc5, 0xe4, 0x3e,
  0xde, 0xfa, 0xf5, 0xbe, 0x3d, 0xe2, 0x5c, 0x3e, 0x44, 0xaa, 0x8d, 0x3f,
  0x17, 0x4a, 0x9a, 0xbe, 0xb8, 0xd3, 0x81, 0x3e, 0xb1, 0x25, 0xa7, 0x3f,
  0x31, 0xf2, 0x2a, 0xbe, 0x9b, 0x69, 0x0d, 0x3f, 0xec, 0x6e, 0x00, 0x3d,
  0x9f, 0x5a, 0x04, 0x3f, 0xfe, 0x3b, 0xd5, 0xbd, 0xc4, 0x4a, 0x31, 0xbd,
  0xfa, 0xa6, 0xdd, 0xbe, 0x0f, 0x1d, 0x2c, 0x3e, 0xd5, 0xb7, 0xb5, 0x3d,
  0xa6, 0x97, 0xb8, 0xbe, 0x14, 0x06, 0x8a, 0x3d, 0x8f, 0xe5, 0x29, 0xbe,
  0xef, 0x7d, 0x17, 0xbe, 0x86, 0xed, 0x07, 0x3d, 0x6c, 0xb9, 0x95, 0xbe,
  0x2c, 0xa3, 0xd7, 0xbe, 0x3e, 0x4b, 0x03, 0x3f, 0x97, 0xe4, 0x1c, 0x3f,
  0xab, 0xf8, 0xe8, 0xbe, 0xaf, 0x68, 0xee, 0x3e, 0x53, 0xf1, 0x05, 0x3e,
  0x32, 0xcb, 0x3b, 0x3e, 0x96, 0x76, 0x7c, 0xbe, 0xe8, 0x73, 0xef, 0xbe,
  0xf6, 0xd0, 0x98, 0xbd, 0xc0, 0x4c, 0xc4, 0xbd, 0x9f, 0x5b, 0x82, 0xbc,
  0x31, 0x28, 0x96, 0x3f, 0xa2, 0x4d, 0x0d, 0xbf, 0x01, 0xda, 0xe7, 0x3e,
  0x01, 0xa0, 0x0b, 0xbf, 0x25, 0x53, 0xc7, 0x3e, 0xe3, 0x5f, 0x6b, 0x3e,
  0x21, 0xd7, 0x8c, 0xbe, 0x67, 0x95, 0x26, 0x3e, 0x25, 0x2b, 0x84, 0x3e,
  0xee, 0xa4, 0x0a, 0x3c, 0xd2, 0xba, 0x44, 0xbe, 0x70, 0x88, 0x61, 0xbe,
  0xca, 0xf8, 0xfa, 0x3e, 0x49, 0xca, 0x4b, 0xbe, 0x6c, 0xfe, 0x42, 0xbf,
  0x2f, 0x15, 0xcf, 0xbe, 0x92, 0x26, 0x53, 0x3f, 0x61, 0x02, 0xa6, 0xbe,
  0x4a, 0x3b, 0x5c, 0xbf, 0x05, 0x7d, 0x11, 0xbf, 0x8c, 0x11, 0x12, 0x3f,
  0xe0, 0xcb, 0x86, 0xbe, 0xf0, 0xfe, 0x1c, 0x3f, 0xdc, 0x9e, 0x95, 0x3e,
  0x1c, 0xae, 0x9e, 0xbe, 0x46, 0xb6, 0x9b, 0x3f, 0x1d, 0x18, 0x44, 0xbf,
  0x26, 0x42, 0xf5, 0xbe, 0xd3, 0x84, 0x0c, 0x3f, 0x1a, 0x15, 0x9b, 0xbf,
  0x0e, 0x30, 0x00, 0x3f, 0xd8, 0x6a, 0x9d, 0x3d, 0xc9, 0xe2, 0x19, 0xbf,
  0x46, 0x4a, 0x39, 0x3e, 0x8e, 0x15, 0x6e, 0xbe, 0x4d, 0xb5, 0xd1, 0x3d,
  0x0a, 0x5f, 0x7c, 0x3d, 0x55, 0xb6, 0x21, 0x3f, 0x66, 0x22, 0x87, 0xbe,
  0x46, 0xe1, 0x3b, 0x3f, 0x3c, 0x4e, 0x59, 0x3c, 0x3d, 0x09, 0x4e, 0x3f,
  0x8c, 0x8a, 0x6e, 0x3f, 0x03, 0xe4, 0xb4, 0x3e, 0x43, 0x7e, 0x96, 0x3e,
  0xa6, 0x6e, 0x90, 0x3e, 0x30, 0x34, 0x5b, 0x3e, 0x1a, 0x48, 0xfc, 0xbe,
  0xff, 0xda, 0x65, 0x3f, 0xb0, 0x17, 0x1f, 0xbc, 0xcf, 0x8c, 0x16, 0xbf,
  0xa6, 0xbe, 0xcb, 0x3e, 0x25, 0x59, 0x12, 0xbf, 0xe1, 0xc0, 0x00, 0xbf,
  0xd3, 0x2d, 0xf1, 0x3e, 0x65, 0xc9, 0x0a, 0xbf, 0xde, 0xf1, 0x95, 0x3e,
  0x6e, 0x5b, 0x48, 0x3f, 0x4e, 0xc3, 0xfb, 0x3b, 0x5f, 0x07, 0xc8, 0xbe,
  0x0c, 0xeb, 0x40, 0xbe, 0x87, 0x36, 0xfb, 0xbe, 0xf6, 0x1d, 0x26, 0xbf,
  0x06, 0x6d, 0x07, 0x3f, 0x5e, 0xc2, 0xbb, 0x3c, 0x51, 0x5e, 0xb7, 0x3d,
  0xcc, 0x3b, 0x49, 0xbe, 0x88, 0x40, 0x2b, 0x3e, 0xbe, 0x9d, 0x3c, 0x3e,
  0xfb, 0xa2, 0xee, 0xbe, 0xc9, 0x22, 0x31, 0x3f, 0xf9, 0x05, 0x30, 0x3e,
  0x4b, 0xc3, 0xc8, 0xbe, 0xd0, 0xf9, 0x92, 0x3e, 0x43, 0xa4, 0x4d, 0xbd,
  0xf3, 0xa0, 0x0b, 0x3e, 0x6c, 0x00, 0x98, 0xbd, 0xdc, 0x7d, 0x35, 0x3f,
  0x0c, 0x7d, 0x3b, 0x3f, 0x9e, 0x35, 0x9a, 0x3e, 0xb1, 0xa2, 0xb9, 0xbe,
  0xe6, 0x98, 0xcf, 0x3e, 0xee, 0x94, 0xc1, 0xbe, 0x39, 0x75, 0x0c, 0xbf,
  0xa1, 0x14, 0xc9, 0x3e, 0xb5, 0xe9, 0x36, 0xbf, 0xfd, 0xe9, 0x38, 0x3e,
  0xcc, 0x36, 0x1a, 0xbf, 0x2b, 0xda, 0xdc, 0xbe, 0x2e, 0x7b, 0x35, 0x3f,
  0x7e, 0xe2, 0x14, 0xbf, 0x92, 0x08, 0x46, 0x3e, 0x2c, 0xe8, 0x41, 0x3e,
  0x55, 0xee, 0xe4, 0x3e, 0x6b, 0xc9, 0xc6, 0x3e, 0xca, 0xb1, 0x19, 0xbf,
  0xac, 0x27, 0x45, 0x3f, 0x96, 0x35, 0x83, 0xbe, 0x82, 0x1b, 0xeb, 0x3d,
  0x19, 0xd8, 0x0d, 0xbf, 0x09, 0x2c, 0xb7, 0x3e, 0x89, 0x63, 0x57, 0x3e,
  0xb0, 0x03, 0x32, 0xbf, 0xe9, 0x8b, 0x14, 0x3e, 0x85, 0x09, 0x05, 0x3f,
  0x72, 0x05, 0x5c, 0x3e, 0x85, 0x2a, 0x5a, 0xbe, 0xab, 0xce, 0xa7, 0xbd,
  0x8a, 0x7f, 0x99, 0xbd, 0x49, 0x9d, 0x9e, 0x3e, 0x94, 0xea, 0x25, 0xbd,
  0x3f, 0x45, 0xf9, 0xbe, 0xf3, 0x2a, 0xbe, 0x3e, 0x48, 0xd9, 0x80, 0xbf,
  0x58, 0xf2, 0x00, 0x3e, 0xdf, 0x82, 0x93, 0xbe, 0xf8, 0x1f, 0x26, 0xbf,
  0x0d, 0x3c, 0x55, 0x3e, 0x58, 0xd6, 0x4d, 0x3e, 0x3a, 0xe2, 0xcd, 0x3e,
  0x9d, 0xae, 0xa5, 0x3d, 0x2d, 0x44, 0x66, 0xbf, 0x5f, 0xf7, 0x3b, 0xbf,
  0x5a, 0xe5, 0xde, 0xbe, 0xd1, 0xe8, 0x33, 0x3e, 0x6a, 0x79, 0x0a, 0xbc,
  0x3a, 0x31, 0x9a, 0x3d, 0x0a, 0x84, 0x47, 0xbf, 0x3c, 0xbf, 0x91, 0xbd,
  0xeb, 0x80, 0xb1, 0xbe, 0x1b, 0xbf, 0x1a, 0x3f, 0x50, 0x2b, 0xb4, 0x3d,
  0x5e, 0x31, 0x58, 0xbe, 0xff, 0x42, 0x21, 0xbe, 0xa9, 0x01, 0x09, 0x3f,
  0x13, 0x71, 0x0e, 0x3e, 0xe4, 0xeb, 0xed, 0x3d, 0x56, 0xc1, 0xee, 0x3e,
  0x9c, 0x18, 0xe5, 0xbe, 0x37, 0xec, 0x25, 0x3f, 0xa0, 0x0f, 0x30, 0x3d,
  0x79, 0xce, 0xb9, 0xbe, 0xc6, 0xb3, 0x1e, 0x3f, 0x6f, 0xa0, 0x9d, 0x3f,
  0x29, 0xd5, 0x72, 0xbe, 0x23, 0x5b, 0x3c, 0x3d, 0x1b, 0x7a, 0x81, 0x3f,
  0x35, 0x23, 0x55, 0xbf, 0x4d, 0xcd, 0x0f, 0xbc, 0x69, 0x5b, 0x2e, 0x3f,
  0x57, 0xfe, 0x0b, 0x3f, 0xdd, 0x34, 0xdd, 0x3d, 0x27, 0x6d, 0x66, 0x3f,
  0x02, 0x20, 0xaa, 0xbf, 0xc6, 0xfd, 0x96, 0xbd, 0xea, 0x85, 0xfe, 0x3e,
  0x3a, 0x4b, 0x00, 0xbf, 0x08, 0x9f, 0x1d, 0xbe, 0xd9, 0xac, 0x89, 0x3e,
  0x56, 0xe6, 0x1a, 0x3c, 0x40, 0x8a, 0x01, 0x3f, 0x83, 0x3b, 0x81, 0x3f,
  0x80, 0x8f, 0xb2, 0x3e, 0x0b, 0xc3, 0xc2, 0x3c, 0x51, 0x78, 0xc1, 0xbe,
  0x50, 0xdf, 0x35, 0x3f, 0xef, 0x8a, 0x19, 0xbe, 0x8a, 0xd3, 0x0b, 0xbf,
  0x18, 0xb0, 0xe2, 0xbe, 0x38, 0xec, 0x2b, 0x3e, 0xb4, 0xff, 0xab, 0x3d,
  0xb5, 0xeb, 0x48, 0xbe, 0xd3, 0x81, 0xba, 0x3e, 0xa2, 0x99, 0x9e, 0xbe,
  0x26, 0x97, 0xde, 0xbe, 0x2a, 0x13, 0xdd, 0xbe, 0x37, 0xb8, 0xb3, 0xbe,
  0x98, 0x1a, 0x9b, 0xbc, 0x53, 0xd4, 0x53, 0xbe, 0x68, 0x5b, 0x17, 0xbe,
  0x5d, 0xfe, 0xd2, 0x3f, 0x9f, 0xe3, 0xc9, 0xbe, 0x21, 0x87, 0x65, 0xbe,
  0xe7, 0x94, 0x6e, 0xbf, 0x5e, 0x86, 0xce, 0xbe, 0xbe, 0x72, 0x03, 0x3e,
  0x52, 0xb9, 0x0a, 0x3e, 0x1e, 0x23, 0x99, 0x3e, 0x7f, 0x33, 0x0e, 0xbf,
  0x54, 0x10, 0x0c, 0x3e, 0xda, 0xbb, 0x20, 0xbe, 0xb2, 0xcf, 0x73, 0x3e,
  0xd8, 0xe7, 0x7d, 0x3e, 0xaa, 0xbe, 0x19, 0xbf, 0x7c, 0x0a, 0x86, 0x3e,
  0x59, 0xdf, 0x18, 0x3c, 0x42, 0x75, 0xba, 0xbe, 0x26, 0x2f, 0x06, 0xbe,
  0xa1, 0x0f, 0x61, 0x3e, 0x75, 0x60, 0x93, 0x3e, 0x1e, 0x3c, 0x05, 0x3e,
  0x88, 0x30, 0xec, 0xbd, 0x65, 0x8f, 0x84, 0xbd, 0x2b, 0xd6, 0xd1, 0xbe,
  0xd6, 0x73, 0x33, 0x3d, 0xfc, 0x5f, 0xa7, 0xbd, 0x40, 0x48, 0xdd, 0xbe,
  0x4b, 0x42, 0x20, 0x3f, 0x5e, 0x3d, 0xc5, 0x3e, 0x7a, 0x85, 0x92, 0xbe,
  0x28, 0x23, 0x1a, 0x3f, 0x44, 0xf0, 0x31, 0xbe, 0xf4, 0xd2, 0xa4, 0xbd,
  0x39, 0xe6, 0xf1, 0xba, 0x0c, 0xc8, 0x07, 0x3f, 0x3f, 0x6c, 0xf8, 0x3e,
  0xd6, 0xd0, 0x5e, 0x3c, 0x95, 0x10, 0x0b, 0xbe, 0x1c, 0x4e, 0xf8, 0x3c,
  0xc1, 0xb3, 0x93, 0x3e, 0xcf, 0xf7, 0xbd, 0xbe, 0x69, 0xfe, 0xb6, 0xbe,
  0x70, 0xa1, 0x22, 0x3e, 0xb3, 0x14, 0x66, 0xbf, 0x11, 0x93, 0xbb, 0xbe,
  0x38, 0xeb, 0x3d, 0xbf, 0xc3, 0x72, 0xb3, 0x3e, 0x6d, 0x57, 0x60, 0x3f,
  0x5e, 0x82, 0x6e, 0xbb, 0xb3, 0x49, 0xde, 0x3d, 0xe8, 0x5c, 0xdb, 0xbd,
  0x52, 0xc2, 0x78, 0x3e, 0xe3, 0xa1, 0x22, 0x3e, 0xea, 0x49, 0x97, 0x3f,
  0xec, 0x6d, 0x43, 0xbf, 0x4d, 0x25, 0x30, 0x3f, 0xcb, 0x80, 0x32, 0x3f,
  0x1c, 0x50, 0x05, 0xbf, 0x37, 0x27, 0x4a, 0xbf, 0x77, 0x2b, 0xad, 0x3e,
  0xaf, 0xd6, 0x9f, 0xbd, 0x54, 0x3a, 0xca, 0x3e, 0x20, 0x28, 0x2a, 0x3f,
  0x41, 0x3f, 0xce, 0xbd, 0x27, 0x83, 0xdf, 0xbd, 0xf7, 0x5a, 0x23, 0x3e,
  0x96, 0x9f, 0xa8, 0x3d, 0x6d, 0xb2, 0x8e, 0xbf, 0xc7, 0x0e, 0x0d, 0x3e,
  0xb7, 0xc0, 0xf3, 0xbe, 0x34, 0x24, 0x0f, 0x3f, 0x77, 0xff, 0xe5, 0x3e,
  0x14, 0xc8, 0x1b, 0xbf, 0xf6, 0xd8, 0x77, 0xbe, 0xd5, 0x62, 0x1c, 0x3d,
  0xfd, 0x69, 0x03, 0xbd, 0x84, 0xe3, 0xba, 0xbe, 0xc4, 0x7d, 0x47, 0x3e,
  0x5e, 0x1b, 0x05, 0xbe, 0x11, 0xf9, 0xe8, 0x3e, 0xb7, 0x2d, 0x14, 0xbf,
  0xb5, 0x39, 0xc1, 0xbe, 0x2c, 0x0e, 0xa9, 0x3e, 0x9c, 0x61, 0xc1, 0x3d,
  0x05, 0x35, 0xe8, 0x3e, 0xef, 0x08, 0xdd, 0xbc, 0x05, 0x8c, 0x94, 0x3f,
  0xac, 0xed, 0xe2, 0x3b, 0xa5, 0x5e, 0x5b, 0xbc, 0x5a, 0xb0, 0x97, 0x3f,
  0xa6, 0xf0, 0x7d, 0x3e, 0xcf, 0xd5, 0x06, 0x3d, 0x9c, 0x1b, 0x06, 0x3f,
  0x71, 0xea, 0xad, 0xbe, 0x3e, 0x69, 0x5c, 0x3e, 0xf5, 0x83, 0xe2, 0xbe,
  0x73, 0x41, 0xab, 0xbe, 0xbd, 0x55, 0x84, 0xbd, 0x2d, 0x0e, 0xb3, 0x3e,
  0x2e, 0x2b, 0x9f, 0xbe, 0x23, 0xbb, 0x98, 0x3e, 0x79, 0x15, 0x46, 0x3e,
  0xde, 0xba, 0xa5, 0xbe, 0x2e, 0x01, 0x92, 0xbe, 0x67, 0x82, 0xbf, 0x3d,
  0x50, 0x44, 0x05, 0x3f, 0x14, 0xc0, 0xa6, 0xbe, 0x70, 0x89, 0xb5, 0xbe,
  0x8b, 0x60, 0xb0, 0xbd, 0x5f, 0x3b, 0x21, 0xbe, 0x08, 0x7a, 0xb0, 0x3d,
  0xe5, 0x07, 0xe2, 0xbe, 0x21, 0xf1, 0x98, 0x3e, 0x56, 0x5f, 0x3e, 0xbe,
  0xea, 0x25, 0x3a, 0xbe, 0x18, 0xb8, 0x36, 0xbe, 0x0a, 0x48, 0xf0, 0x3e,
  0xa3, 0x18, 0x2b, 0x3e, 0xe0, 0xb6, 0xbb, 0x3d, 0x8b, 0xf3, 0x20, 0x3f,
  0x5a, 0x08, 0x28, 0x3f, 0x15, 0x98, 0x3a, 0xbc, 0xae, 0x29, 0xa7, 0xbe,
  0x0f, 0x7e, 0xd0, 0x3d, 0x5d, 0x50, 0x86, 0xbe, 0x11, 0x5f, 0xd0, 0xbd,
  0x0e, 0x38, 0xbe, 0xbc, 0xbe, 0xdc, 0x5e, 0x3f, 0x22, 0xf6, 0x1f, 0x3e,
  0xa8, 0xe7, 0x58, 0x3f, 0x72, 0x9a, 0x68, 0xbf, 0x1e, 0x7c, 0x42, 0x3e,
  0x63, 0xab, 0x0f, 0xbe, 0x94, 0xf8, 0x18, 0x3f, 0x00, 0x01, 0x2a, 0xbe,
  0x99, 0xb2, 0xd8, 0x3d, 0x8c, 0x2d, 0x17, 0xbe, 0x50, 0x83, 0x23, 0x3f,
  0x41, 0x02, 0x98, 0x3e, 0x9f, 0x10, 0x62, 0xbe, 0x2d, 0xb0, 0x36, 0x3e,
  0xe0, 0x15, 0xf7, 0x3e, 0xd4, 0x67, 0x76, 0xbe, 0xb4, 0x18, 0xe3, 0xbe,
  0x45, 0x68, 0xc5, 0xbd, 0x6f, 0x79, 0xb7, 0xbd, 0xa4, 0x0b, 0x2b, 0xbf,
  0x2e, 0x6d, 0x74, 0x3d, 0x18, 0x36, 0x26, 0x3e, 0x9b, 0x35, 0x03, 0xbf,
  0x23, 0xcb, 0xf1, 0xbe, 0x3a, 0x89, 0xaf, 0x3e, 0x50, 0x05, 0x5d, 0xbe,
  0x0f, 0x09, 0x26, 0x3f, 0xd9, 0x0a, 0xc0, 0x3e, 0x8b, 0x25, 0x88, 0xbf,
  0xaf, 0xad, 0x7a, 0x3f, 0x00, 0x5c, 0x27, 0x3f, 0x09, 0xae, 0x2b, 0xbf,
  0x8f, 0xe7, 0x2c, 0x3e, 0x3f, 0x64, 0x1f, 0x3d, 0x08, 0xb8, 0x22, 0xbf,
  0x28, 0xeb, 0x7d, 0xbe, 0x17, 0x8b, 0x9d, 0x3c, 0x8f, 0x14, 0x4f, 0xbf,
  0x7b, 0xa3, 0x3c, 0xbd, 0xf6, 0x25, 0xc0, 0x3c, 0x8d, 0x1f, 0x94, 0xbe,
  0x26, 0x22, 0x33, 0x3f, 0xec, 0x90, 0x09, 0xbd, 0xfd, 0xef, 0xa0, 0xbe,
  0x18, 0xa6, 0x66, 0xbd, 0x11, 0x4b, 0x47, 0xbf, 0xda, 0x38, 0x80, 0x3d,
  0x05, 0x99, 0xd2, 0x3e, 0x62, 0x11, 0xe1, 0x3e, 0x31, 0xb5, 0xda, 0xbe,
  0x0d, 0x3e, 0x75, 0x3f, 0xf4, 0x32, 0x65, 0x3e, 0x99, 0xe1, 0xce, 0xbe,
  0x0f, 0x07, 0x2c, 0xbf, 0xba, 0xc0, 0xf5, 0x3e, 0x70, 0x6b, 0x8d, 0x3e,
  0x35, 0x27, 0x38, 0x3f, 0x26, 0x75, 0x6d, 0x3f, 0xbc, 0x51, 0x8d, 0xbd,
  0xda, 0x14, 0x0d, 0x3e, 0x40, 0xac, 0x06, 0xbf, 0x45, 0x44, 0x95, 0x3e,
  0xdd, 0x58, 0xac, 0xbf, 0x2d, 0x55, 0xb4, 0xbf, 0x83, 0xc1, 0x9a, 0xbf,
  0x7a, 0x3c, 0x7c, 0xbb, 0x22, 0xb6, 0x7c, 0xbf, 0x9f, 0x8c, 0xfa, 0xbb,
  0x0e, 0x52, 0x14, 0x3e, 0x32, 0x1d, 0x22, 0x3e, 0xf0, 0xe2, 0xd8, 0xbe,
  0x7c, 0x04, 0x72, 0xbd, 0x24, 0x24, 0xc7, 0x3e, 0x74, 0xd5, 0xb2, 0x3d,
  0xf9, 0x35, 0x57, 0xbd, 0x96, 0x11, 0xfe, 0xbf, 0x51, 0x18, 0xc0, 0x3e,
  0x40, 0x2e, 0x28, 0xbf, 0x56, 0xce, 0x7a, 0x3e, 0x3a, 0xbf, 0x7a, 0xbf,
  0xbd, 0xf7, 0x7d, 0x3e, 0x43, 0xe3, 0xc3, 0xbf, 0xf7, 0x12, 0x6e, 0x3e,
  0x0c, 0x2a, 0x91, 0x3e, 0x16, 0xc1, 0x97, 0xbf, 0x3b, 0x24, 0xd3, 0x3e,
  0xac, 0x7b, 0xd4, 0xbe, 0x58, 0x1e, 0xa1, 0x3d, 0x77, 0x08, 0x26, 0xbf,
  0x92, 0x60, 0x02, 0xbf, 0x25, 0x79, 0x00, 0xc0, 0x15, 0xf7, 0xd6, 0xbf,
  0xbf, 0xba, 0xa4, 0x3e, 0x17, 0x2e, 0x25, 0x3e, 0x6b, 0xd5, 0xa9, 0xbe,
  0xd1, 0x1c, 0x85, 0xbc, 0xeb, 0x89, 0xa4, 0xbd, 0x20, 0xba, 0x01, 0xc0,
  0x6e, 0x59, 0xc9, 0xbd, 0x2c, 0xbc, 0x10, 0x3e, 0xef, 0xc6, 0xd5, 0x3d,
  0x4c, 0x44, 0xd7, 0xbf, 0xf5, 0x02, 0x96, 0xbf, 0xec, 0x38, 0x2b, 0x3e,
  0xe0, 0x01, 0x74, 0x3e, 0x6d, 0xe8, 0x2a, 0xbf, 0x33, 0x98, 0xbe, 0xbe,
  0x8e, 0x2f, 0xa3, 0x3c, 0x3f, 0xe4, 0xce, 0xbd, 0xd2, 0x7e, 0xe8, 0xbe,
  0x32, 0xa8, 0x82, 0xbf, 0xd8, 0x63, 0xf4, 0x3d, 0xc7, 0x5d, 0x8f, 0xbf,
  0x9a, 0xf1, 0x20, 0x3f, 0xb6, 0x3e, 0xa6, 0xbe, 0x46, 0x69, 0x67, 0xbf,
  0x8b, 0x83, 0xe2, 0xbe, 0x0d, 0xd1, 0x80, 0x3c, 0x30, 0x2d, 0x0f, 0xbe,
  0xd7, 0x0f, 0x85, 0x3d, 0x70, 0x08, 0x0f, 0x3f, 0x3d, 0xf1, 0x18, 0x3e,
  0x2b, 0xcd, 0xc3, 0x3e, 0x89, 0xed, 0x14, 0xbf, 0x8d, 0x1f, 0x64, 0x3d,
  0xb4, 0x61, 0xb6, 0x3f, 0x0e, 0x5e, 0xab, 0xbe, 0xb7, 0x4b, 0x91, 0x3e,
  0x05, 0xdb, 0x0a, 0x3d, 0xfa, 0xe9, 0xeb, 0x3e, 0x45, 0xea, 0x64, 0xbe,
  0xbd, 0xbd, 0x04, 0xbf, 0xaf, 0xaf, 0x34, 0xbe, 0x63, 0x5b, 0x91, 0x3f,
  0xfe, 0xd0, 0x29, 0x3c, 0x35, 0xf9, 0x89, 0x3d, 0xb2, 0xe2, 0xcf, 0x3e,
  0x2e, 0xa0, 0xba, 0xbe, 0x09, 0x33, 0x92, 0x3f, 0xa0, 0xc9, 0x77, 0xbf,
  0xad, 0x3b, 0xab, 0xbc, 0x1d, 0x6b, 0x74, 0x3f, 0x74, 0xd9, 0x7f, 0xbf,
  0xb0, 0x45, 0xc7, 0x3e, 0x1f, 0xb5, 0x8a, 0xbe, 0xab, 0x99, 0xa6, 0xbe,
  0x62, 0x47, 0x5e, 0x3e, 0x9f, 0xdb, 0xfc, 0xbb, 0xf9, 0x94, 0x91, 0x3e,
  0x7c, 0xd5, 0x3b, 0xbe, 0xcc, 0x18, 0x52, 0x3d, 0x27, 0x9f, 0xcc, 0xbe,
  0x24, 0xdc, 0x95, 0x3f, 0x31, 0x8e, 0x13, 0x3e, 0x34, 0x4a, 0x84, 0x3c,
  0x46, 0xe9, 0x8e, 0x3f, 0x49, 0xa8, 0x41, 0x3e, 0x8a, 0x96, 0xa1, 0xbe,
  0xfc, 0x4b, 0xc1, 0xb8, 0xf6, 0xd7, 0xba, 0x3e, 0xa9, 0x6a, 0x04, 0x3e,
  0x51, 0x0e, 0x2b, 0x3f, 0xc3, 0x2b, 0x1c, 0xbe, 0xdc, 0x4f, 0x25, 0xbe,
  0xd8, 0x99, 0x83, 0x3f, 0x5a, 0xc9, 0x00, 0xbf, 0x41, 0x23, 0x39, 0x3f,
  0xd6, 0x2d, 0xdd, 0x3e, 0x9d, 0x4f, 0xe1, 0x3d, 0x32, 0xd0, 0xaa, 0x3d,
  0xdc, 0x6a, 0xa1, 0x3e, 0xc2, 0xcf, 0xd8, 0x3e, 0x98, 0x42, 0x13, 0xbf,
  0x01, 0xb3, 0xa6, 0xbe, 0x25, 0x6a, 0xa5, 0xbe, 0xb5, 0xbd, 0x73, 0x3d,
  0x83, 0x9b, 0x25, 0x3f, 0xdf, 0x15, 0x3c, 0x3e, 0xa9, 0xf3, 0x3b, 0xbe,
  0xbd, 0x84, 0x1c, 0xbf, 0xf2, 0x1f, 0x07, 0xbf, 0x0b, 0xbb, 0x0b, 0x3e,
  0x57, 0x55, 0xd8, 0xbe, 0x88, 0x90, 0x09, 0x3f, 0x5d, 0xec, 0xf5, 0x3e,
  0x45, 0x72, 0x5a, 0xbf, 0xb4, 0xd8, 0x82, 0x3e, 0x51, 0x88, 0xd0, 0xbd,
  0xfe, 0xfc, 0x23, 0x3e, 0x93, 0x83, 0x59, 0x3b, 0xf7, 0x35, 0x1f, 0x3f,
  0xcc, 0xb6, 0xdd, 0x3e, 0xe7, 0x5d, 0xb6, 0x3e, 0x69, 0x06, 0x0a, 0xbf,
  0x4a, 0x2e, 0x85, 0xbe, 0xaf, 0xe9, 0xda, 0x3e, 0x0c, 0xe9, 0x0f, 0x3e,
  0x46, 0x3a, 0x5d, 0x3e, 0x02, 0xc0, 0x40, 0xbe, 0x58, 0xab, 0x51, 0x3f,
  0xa9, 0xdd, 0x1c, 0xbd, 0xd0, 0x62, 0x3e, 0xbf, 0xb2, 0xd3, 0xfd, 0x3e,
  0x04, 0x6d, 0x76, 0xbe, 0xb0, 0x9d, 0xa9, 0x3e, 0x67, 0x2d, 0xa2, 0x3e,
  0x0a, 0x3f, 0x01, 0x3f, 0x15, 0x7c, 0xa1, 0x3e, 0x6c, 0xa8, 0x81, 0xbe,
  0x97, 0x94, 0x14, 0x3f, 0xc9, 0x0e, 0xf2, 0xbd, 0x56, 0x8e, 0x8d, 0x3e,
  0x11, 0x74, 0x20, 0xbf, 0xb5, 0xe6, 0xa3, 0xbd, 0xe8, 0x2d, 0xfd, 0x3e,
  0x51, 0x67, 0x96, 0xbe, 0x3f, 0x82, 0x30, 0x3e, 0x77, 0xae, 0x40, 0x3f,
  0xef, 0x19, 0xcf, 0x3d, 0x3a, 0x51, 0x35, 0xbd, 0x30, 0x51, 0x37, 0xbf,
  0xaf, 0xcb, 0x3f, 0xbe, 0xf5, 0x6d, 0x87, 0x3d, 0x5d, 0xc7, 0x05, 0x3e,
  0x62, 0x7f, 0x13, 0xbf, 0x3e, 0x2f, 0x67, 0x3e, 0x67, 0xb5, 0x6e, 0xbf,
  0xab, 0xc0, 0x12, 0xbc, 0xe4, 0xf5, 0xd5, 0xbe, 0x4f, 0xa1, 0x24, 0xbf,
  0xc0, 0xe0, 0xc5, 0x3e, 0xce, 0x68, 0x0b, 0xbd, 0xce, 0xaf, 0x93, 0x3e,
  0x1d, 0x05, 0x28, 0x3f, 0x44, 0x59, 0x35, 0xbf, 0x99, 0x3d, 0x09, 0xbf,
  0x91, 0x6e, 0xe2, 0xbe, 0x6f, 0x23, 0x04, 0xbf, 0x83, 0xf0, 0x2a, 0x3e,
  0xc8, 0xe5, 0x97, 0x3d, 0x31, 0x1f, 0x4e, 0xbe, 0x1f, 0x23, 0x91, 0x3c,
  0x3c, 0x24, 0x5d, 0x3d, 0x1a, 0xe9, 0x1c, 0xbe, 0x79, 0x1a, 0x34, 0xbf,
  0x72, 0xd0, 0x01, 0x3f, 0x24, 0x53, 0x01, 0x3f, 0x7f, 0x3d, 0xa4, 0x3d,
  0x1e, 0x9d, 0x9c, 0xbf, 0x3b, 0xc9, 0xfb, 0xbc, 0x47, 0x60, 0x1b, 0xbf,
  0x39, 0xb1, 0x80, 0xbf, 0x07, 0x16, 0xca, 0xbf, 0x8d, 0x8a, 0xb5, 0x3e,
  0xb7, 0xef, 0xfd, 0xbe, 0x3e, 0xed, 0x95, 0x3e, 0x58, 0x0e, 0xb5, 0xbe,
  0xc9, 0x69, 0x00, 0x3f, 0x59, 0xcd, 0xb2, 0x3e, 0x35, 0xce, 0x40, 0x3e,
  0x18, 0x8f, 0x5b, 0xbd, 0xbd, 0x4b, 0xad, 0xbe, 0xdb, 0x42, 0x0d, 0xbf,
  0x12, 0x51, 0x32, 0x3f, 0xe0, 0xbe, 0x3e, 0x3e, 0x6b, 0x41, 0xad, 0xbf,
  0xd9, 0xc2, 0x46, 0xbe, 0x51, 0x03, 0xea, 0xbe, 0x25, 0xea, 0xd9, 0xbe,
  0xb1, 0x4b, 0xaa, 0xbe, 0x87, 0xdc, 0x46, 0x3e, 0xb1, 0x83, 0x15, 0xbe,
  0xcb, 0x8a, 0x10, 0x3f, 0x79, 0xbb, 0x92, 0x3d, 0xe8, 0xde, 0x49, 0xbd,
  0x87, 0x15, 0x97, 0x3d, 0xc6, 0xf6, 0x54, 0xbe, 0x9d, 0x4c, 0x63, 0x3e,
  0x1f, 0xe9, 0xce, 0x3e, 0x16, 0xf6, 0x06, 0xbe, 0xf9, 0x1e, 0x8a, 0x3e,
  0xfe, 0x6f, 0x07, 0x3f, 0x9e, 0x35, 0xab, 0xbe, 0xd7, 0x65, 0x3e, 0xbf,
  0xe2, 0x24, 0x2e, 0x3f, 0xf7, 0x30, 0x61, 0xbe, 0x10, 0xc3, 0x53, 0xbf,
  0xbe, 0x0a, 0x9b, 0xbe, 0x57, 0xe2, 0x79, 0x3e, 0xb2, 0x3f, 0xdd, 0x3e,
  0x7a, 0x10, 0xd7, 0x3e, 0x19, 0x9b, 0x8c, 0x3e, 0x87, 0x3a, 0xdc, 0xbb,
  0x1e, 0x38, 0xa7, 0xbf, 0x73, 0x79, 0x90, 0xbd, 0x71, 0xa5, 0x6a, 0xbf,
  0x47, 0x7d, 0x50, 0x3f, 0xd9, 0xc1, 0xac, 0xbe, 0x00, 0x00, 0x00, 0x00,
  0x26, 0xf4, 0xff, 0xff, 0x04, 0x00, 0x00, 0x00, 0x40, 0x0b, 0x00, 0x00,
  0x98, 0x3e, 0xd5, 0x3c, 0x13, 0xff, 0x0c, 0x3e, 0x17, 0xc0, 0xbf, 0x3e,
  0x81, 0x29, 0x28, 0x3e, 0xc3, 0x3f, 0x6a, 0xbe, 0x4c, 0xd4, 0xcd, 0xbe,
  0x3f, 0x2a, 0x7b, 0xbd, 0x8e, 0xdc, 0xc8, 0x3e, 0x22, 0x35, 0x36, 0xbb,
  0xf2, 0xea, 0x24, 0xbe, 0xd7, 0x56, 0xd7, 0x3e, 0x2a, 0x43, 0x0f, 0xbc,
  0x33, 0x8b, 0xab, 0xbe, 0x17, 0xd1, 0x8c, 0x3e, 0xaf, 0x1b, 0x9d, 0xbe,
  0x2d, 0x70, 0xdb, 0xbe, 0x9c, 0xcf, 0xfd, 0xbc, 0xc2, 0xfc, 0xba, 0x3c,
  0x39, 0x1b, 0xd5, 0xbd, 0xca, 0xfd, 0xf3, 0xbd, 0xd0, 0xaa, 0x81, 0xbe,
  0x11, 0x25, 0xb4, 0x3c, 0x09, 0x01, 0xd7, 0x3e, 0x5d, 0x60, 0x45, 0xbe,
  0x12, 0x63, 0x25, 0xbb, 0x65, 0x01, 0x4e, 0xbf, 0xec, 0x8f, 0x40, 0xbf,
  0x92, 0x21, 0x8e, 0xbc, 0x40, 0xba, 0xd2, 0xbf, 0xf6, 0x78, 0x56, 0x3f,
  0xc1, 0xe6, 0x5f, 0xbc, 0xfa, 0x4e, 0x27, 0x3f, 0xbc, 0x67, 0x82, 0x3f,
  0x33, 0xc2, 0x8f, 0xbd, 0x32, 0xe7, 0x0e, 0xbd, 0xf1, 0x1d, 0xa5, 0x3e,
  0x11, 0x22, 0x41, 0x3e, 0x22, 0x1f, 0x6c, 0x3e, 0xcc, 0xdd, 0x14, 0xbc,
  0xf2, 0x39, 0x8d, 0xbe, 0x1b, 0x2e, 0x99, 0xbe, 0xab, 0xfa, 0x3b, 0xbd,
  0xce, 0x76, 0x3b, 0x3e, 0x01, 0xc0, 0xc1, 0xbc, 0xea, 0x8a, 0x25, 0x3f,
  0x4f, 0x8a, 0x23, 0x3f, 0x5f, 0xaf, 0x43, 0x3d, 0x24, 0x09, 0x97, 0xbe,
  0x77, 0x58, 0xaa, 0xbe, 0x67, 0x8b, 0x62, 0x3f, 0x2c, 0xec, 0x47, 0xbe,
  0x04, 0xcb, 0x0b, 0x3f, 0xfc, 0x47, 0xc2, 0xbf, 0xd8, 0x4b, 0xb6, 0xbd,
  0xec, 0x1c, 0x1d, 0xbe, 0x06, 0xf4, 0x7a, 0xbe, 0x36, 0x73, 0xc6, 0x3d,
  0xa5, 0x85, 0xf4, 0x3d, 0x41, 0x02, 0x9a, 0x3e, 0x83, 0xfe, 0x8e, 0x3e,
  0x0b, 0xa4, 0xbb, 0x3e, 0xc6, 0x33, 0x6e, 0xbf, 0x0c, 0xaf, 0x89, 0x3f,
  0xaf, 0xac, 0xa4, 0x3c, 0xb4, 0xc4, 0x77, 0x3f, 0x5f, 0x89, 0x37, 0xbf,
  0x75, 0x79, 0x84, 0xbe, 0x23, 0xc7, 0xcc, 0x3d, 0x45, 0x5a, 0xbf, 0xbe,
  0xa1, 0x26, 0xf4, 0x3d, 0xe6, 0xdd, 0x25, 0xbd, 0x41, 0x76, 0x57, 0xbf,
  0x1d, 0x7c, 0x96, 0xbe, 0x43, 0xe2, 0xfd, 0xbf, 0x5d, 0x56, 0x98, 0x3e,
  0x7e, 0xb7, 0xba, 0x3e, 0x1c, 0x75, 0x16, 0x3d, 0x79, 0xe9, 0x89, 0xbe,
  0xb0, 0x03, 0x1c, 0xbd, 0xaa, 0x47, 0x14, 0x3e, 0xef, 0x68, 0xe0, 0x3c,
  0xc4, 0x67, 0x9a, 0x3e, 0xf5, 0xd8, 0xc8, 0x3e, 0xd4, 0xc7, 0x37, 0xbf,
  0xa2, 0xef, 0x47, 0xbd, 0x74, 0x8c, 0xcf, 0x3f, 0xd9, 0xd5, 0x27, 0xbf,
  0x2e, 0x94, 0xef, 0xbc, 0xf1, 0x90, 0x8d, 0x3d, 0xa7, 0x52, 0x3a, 0x3d,
  0xeb, 0xe0, 0x6b, 0x3d, 0x2c, 0x02, 0x59, 0xbe, 0x8f, 0x91, 0xcc, 0x3e,
  0x38, 0x7b, 0xf8, 0xbc, 0xd6, 0x2a, 0x04, 0xbd, 0x74, 0xe6, 0xbd, 0x3f,
  0x8d, 0x34, 0x2d, 0x3e, 0x31, 0xe3, 0x32, 0xbe, 0xf3, 0x8e, 0xcf, 0x3e,
  0xe5, 0x5f, 0xee, 0x3e, 0x3b, 0x3d, 0x66, 0x3e, 0x84, 0xd9, 0x41, 0xbf,
  0x94, 0x62, 0x1e, 0xbf, 0x8b, 0x63, 0x00, 0x3e, 0x7a, 0xc4, 0x43, 0xbe,
  0x9a, 0x09, 0x97, 0x3e, 0xeb, 0x43, 0xf2, 0xbe, 0x38, 0x17, 0xc4, 0xbe,
  0xa2, 0x47, 0x94, 0xbd, 0xb8, 0xd8, 0x55, 0xbe, 0xe6, 0x7d, 0xef, 0x3d,
  0xb7, 0x7e, 0x99, 0xbe, 0x25, 0x79, 0xc7, 0x3e, 0x59, 0x0e, 0x25, 0x3e,
  0x67, 0x0d, 0x69, 0xbe, 0xfe, 0x89, 0xe5, 0x3d, 0xfa, 0xdb, 0x42, 0xbf,
  0xd4, 0x4a, 0x5b, 0xbe, 0x36, 0x0a, 0x49, 0x3e, 0xc0, 0xe5, 0x4c, 0xbf,
  0xd1, 0x6d, 0x78, 0x3d, 0x98, 0x5b, 0x05, 0xc0, 0x11, 0xf2, 0x16, 0x3f,
  0x2b, 0x25, 0x0d, 0xbb, 0xc4, 0x98, 0x92, 0x3f, 0x34, 0x19, 0x88, 0xbe,
  0x94, 0x9d, 0x84, 0xbc, 0xd7, 0x6a, 0x5a, 0x3e, 0x68, 0x40, 0x3a, 0xbd,
  0x8d, 0x1b, 0xb7, 0xbd, 0x97, 0x2f, 0xd3, 0x3d, 0x53, 0x21, 0x10, 0xbf,
  0x84, 0x3d, 0x21, 0x3e, 0x78, 0x6b, 0x71, 0x3f, 0x57, 0xdd, 0xb7, 0xbe,
  0x4f, 0x8e, 0x3d, 0x3e, 0x67, 0x68, 0x17, 0x3f, 0x91, 0x8f, 0x73, 0xbe,
  0xd6, 0x8e, 0x39, 0xbe, 0x9f, 0x19, 0x06, 0xbe, 0x2c, 0x27, 0x54, 0x3e,
  0x6a, 0xcd, 0xd1, 0xbc, 0x4f, 0xfb, 0x83, 0x3d, 0xf7, 0x34, 0xc7, 0x3e,
  0xd4, 0xcd, 0x1d, 0x3e, 0x1b, 0x09, 0xc1, 0xbf, 0xed, 0x40, 0xb2, 0x3e,
  0xe1, 0x07, 0xac, 0xbe, 0x02, 0x86, 0xbd, 0x3d, 0x85, 0x05, 0xb4, 0xbe,
  0xf0, 0x53, 0xd8, 0x3c, 0x69, 0x75, 0x9e, 0x3e, 0x62, 0x6a, 0x53, 0x3e,
  0x78, 0x33, 0xdc, 0x3d, 0xfd, 0xc4, 0x0e, 0x3d, 0xff, 0x55, 0x96, 0xbf,
  0xaa, 0x47, 0xd8, 0xbc, 0xf2, 0x80, 0x08, 0xc0, 0x68, 0x10, 0xf6, 0xbe,
  0xbb, 0x9d, 0x14, 0xbc, 0x16, 0x51, 0x9f, 0xbf, 0xac, 0xb5, 0x16, 0x3f,
  0x2c, 0xd1, 0x76, 0x3d, 0x14, 0x0e, 0x97, 0x3e, 0x5f, 0x3f, 0x9a, 0x3e,
  0x25, 0x10, 0x26, 0x3b, 0xf1, 0x8f, 0x67, 0x3e, 0xef, 0x08, 0xab, 0xbf,
  0xfa, 0xb3, 0xc8, 0xbb, 0xe1, 0x62, 0xcf, 0xbf, 0xca, 0xf3, 0x14, 0x3f,
  0x10, 0x5f, 0x5d, 0x3c, 0x98, 0x54, 0xcc, 0x3f, 0x97, 0xd6, 0x59, 0xbe,
  0x2b, 0x54, 0x2c, 0xbc, 0x9c, 0x0a, 0xa6, 0xbd, 0x89, 0x5c, 0x66, 0xbf,
  0x69, 0x3f, 0xfe, 0xbc, 0xd3, 0x05, 0x3e, 0x3d, 0xc5, 0x5c, 0x7a, 0xbf,
  0x5a, 0xd6, 0x92, 0x3c, 0xf4, 0xc3, 0xcd, 0x3f, 0xff, 0xfb, 0xec, 0xbe,
  0xa8, 0xc7, 0x37, 0xbd, 0xd3, 0xfc, 0x99, 0xbe, 0x0b, 0x24, 0x9d, 0x3e,
  0x71, 0x8b, 0x53, 0xbc, 0x50, 0x67, 0x16, 0x3e, 0xc3, 0xe7, 0xd8, 0x3e,
  0x72, 0xfe, 0x97, 0x3c, 0xaf, 0x3e, 0xe1, 0xbe, 0x2b, 0xc2, 0xca, 0x3f,
  0x38, 0xb8, 0x79, 0xbc, 0xac, 0x67, 0xd6, 0xbf, 0x64, 0xf2, 0x33, 0x3e,
  0xa3, 0x0d, 0xf8, 0xbc, 0x1d, 0xae, 0x29, 0xbf, 0xcf, 0x98, 0x03, 0x3f,
  0xc8, 0xa3, 0x0b, 0x3e, 0x76, 0x88, 0xcf, 0x3e, 0x58, 0x3c, 0x36, 0x3f,
  0xa9, 0xcb, 0x39, 0xbe, 0x1a, 0xff, 0x96, 0x3e, 0x9c, 0x65, 0x84, 0xbe,
  0x3e, 0x91, 0x32, 0x3c, 0x4c, 0x54, 0xb5, 0x3e, 0x75, 0x22, 0x25, 0x3f,
  0x4d, 0xf2, 0x27, 0xbf, 0x00, 0x0e, 0x80, 0x3f, 0xd7, 0xe9, 0x19, 0xbf,
  0x84, 0xa6, 0x18, 0x3f, 0xc3, 0xc8, 0x98, 0x3d, 0x8f, 0x66, 0x77, 0xbe,
  0xed, 0xae, 0x93, 0x3c, 0xdf, 0xc6, 0x4c, 0x3e, 0x90, 0xa8, 0x95, 0xbe,
  0x0f, 0x24, 0x77, 0xbe, 0x3d, 0x36, 0x1e, 0xbd, 0x66, 0xba, 0xbf, 0x3e,
  0x15, 0xcf, 0x21, 0xbe, 0x69, 0xb5, 0x8b, 0x3f, 0x07, 0x82, 0x4a, 0x3e,
  0x0b, 0xaa, 0xe4, 0xbe, 0x6d, 0x19, 0x73, 0x3e, 0x29, 0xbe, 0xda, 0xbe,
  0xc9, 0xd8, 0xab, 0x3d, 0xfe, 0x81, 0x90, 0x3e, 0x7e, 0x92, 0x0c, 0xbf,
  0xc3, 0xf7, 0xf6, 0x3e, 0x79, 0x7b, 0xbc, 0xbd, 0x1d, 0x1b, 0x6c, 0x3f,
  0xa7, 0xd2, 0xc9, 0xbe, 0xd5, 0x7e, 0xb0, 0xbd, 0xf8, 0x91, 0x14, 0xbf,
  0x2b, 0xb1, 0x84, 0xbd, 0x94, 0xde, 0xb4, 0x3d, 0xb2, 0xdb, 0xde, 0xbe,
  0xba, 0xa7, 0x0d, 0xbf, 0xe9, 0xef, 0xf3, 0x3d, 0x5f, 0xd1, 0x19, 0xbe,
  0xd8, 0xeb, 0x60, 0x3d, 0xb9, 0x00, 0x08, 0x40, 0x2f, 0xab, 0x62, 0xbe,
  0x86, 0x58, 0x4c, 0x3d, 0x68, 0x1f, 0xe9, 0x3d, 0x03, 0x93, 0x09, 0xbe,
  0x16, 0x42, 0x98, 0x3d, 0x8f, 0xac, 0x60, 0xbd, 0xfd, 0xd3, 0x0a, 0x3f,
  0xa3, 0x99, 0x8b, 0xbb, 0x4d, 0x0a, 0x84, 0xbe, 0x46, 0x2e, 0xb6, 0x3f,
  0x0f, 0xd3, 0xea, 0x3c, 0x7e, 0xea, 0x60, 0xbf, 0xb2, 0xdb, 0x40, 0x3f,
  0x45, 0x05, 0x50, 0xbd, 0x81, 0xe8, 0x96, 0x3f, 0x7a, 0x80, 0x57, 0xbf,
  0xb7, 0xbe, 0x88, 0x3c, 0x83, 0x7f, 0x25, 0xbe, 0x1f, 0x44, 0x44, 0xbf,
  0x58, 0xac, 0x8a, 0xbd, 0xad, 0x40, 0xb5, 0xbe, 0xba, 0xf2, 0x4f, 0xbf,
  0xbf, 0x76, 0xbb, 0x3e, 0xc6, 0xc2, 0x65, 0x3f, 0x71, 0x8f, 0x74, 0xbd,
  0x13, 0xb9, 0xbf, 0xbd, 0x76, 0x52, 0x93, 0xbf, 0x52, 0xb9, 0x40, 0xbf,
  0xe6, 0x56, 0x2c, 0x3e, 0x97, 0xa5, 0x6c, 0xbe, 0xed, 0xbb, 0x30, 0xbf,
  0x54, 0xc1, 0x9d, 0xbd, 0x14, 0x11, 0x36, 0x3d, 0x9b, 0x5c, 0xf4, 0x3d,
  0x55, 0xa9, 0x07, 0xbf, 0x6d, 0x1c, 0x4b, 0xbe, 0x85, 0x4d, 0xf6, 0xbe,
  0x86, 0xe9, 0xff, 0x3e, 0x8b, 0x96, 0x70, 0xbf, 0x80, 0xf6, 0xb0, 0x3e,
  0xcf, 0x1b, 0x76, 0x3e, 0xd4, 0x9f, 0x0e, 0x3f, 0x51, 0x25, 0xf3, 0x3e,
  0xc1, 0x18, 0x0b, 0x3f, 0xc3, 0xf2, 0x96, 0x3e, 0x48, 0xcc, 0x3b, 0x3f,
  0x47, 0x17, 0xc4, 0xbb, 0x7f, 0x45, 0xc5, 0xbf, 0x6e, 0xc3, 0xc7, 0x3e,
  0xff, 0xb6, 0x24, 0x3d, 0xc6, 0x91, 0x63, 0x3e, 0x2a, 0xfd, 0x63, 0xbe,
  0x39, 0xe4, 0x65, 0x3c, 0x67, 0x98, 0xc0, 0xbe, 0xdd, 0x38, 0x01, 0xbf,
  0x0c, 0x9c, 0x93, 0xbc, 0x1d, 0x59, 0x1a, 0xbe, 0x97, 0xa9, 0xc7, 0xbf,
  0x5a, 0xd4, 0x05, 0x3e, 0xa2, 0xa7, 0xe9, 0x3f, 0x4d, 0xe0, 0x0a, 0x3e,
  0x9e, 0xf2, 0x62, 0x3d, 0x19, 0xdc, 0x71, 0x3f, 0x37, 0x1b, 0xc6, 0xbe,
  0x49, 0xe1, 0x67, 0xbe, 0x1b, 0x56, 0x6b, 0xbe, 0xac, 0x80, 0x16, 0xbf,
  0xd3, 0x33, 0x19, 0xbd, 0x28, 0xae, 0x67, 0xbe, 0xc9, 0x55, 0x8c, 0x3f,
  0x3f, 0xd3, 0xe8, 0xbe, 0x0d, 0xde, 0x0e, 0xbf, 0xb8, 0xda, 0xa5, 0x3e,
  0xe0, 0x88, 0xe1, 0x3e, 0x16, 0xd3, 0xba, 0xbe, 0x72, 0x89, 0x40, 0x3a,
  0xfa, 0x67, 0x03, 0xbd, 0x05, 0xe0, 0x3a, 0x3e, 0x9d, 0xd7, 0x13, 0xbe,
  0x57, 0xa3, 0x67, 0x3e, 0x8b, 0xcc, 0x8c, 0xbe, 0x56, 0x49, 0x09, 0xbf,
  0x4b, 0x88, 0x8f, 0x3b, 0x2e, 0x58, 0xd0, 0xbf, 0xc2, 0x5b, 0x1c, 0x3f,
  0x0d, 0xbd, 0x19, 0x3d, 0x4b, 0xcc, 0xbb, 0x3f, 0xee, 0xef, 0xe1, 0xbe,
  0xdb, 0x32, 0xf7, 0xbb, 0xa6, 0x6f, 0xb8, 0xbb, 0xb0, 0x83, 0x63, 0xbf,
  0xcc, 0x17, 0x73, 0xbc, 0x0c, 0x3d, 0x37, 0x3a, 0x62, 0x51, 0x5f, 0xbf,
  0x0f, 0xa8, 0xa7, 0x3e, 0x4e, 0x6e, 0x1e, 0xbf, 0x82, 0x8b, 0x59, 0xbe,
  0xfe, 0x7e, 0x9a, 0xbe, 0x88, 0x0d, 0x9e, 0xbf, 0x33, 0xa9, 0x18, 0x3f,
  0x68, 0x4b, 0x09, 0x3d, 0xf4, 0x81, 0x2b, 0x3f, 0x1c, 0xbd, 0x90, 0x3f,
  0x18, 0x5e, 0xed, 0x39, 0x2e, 0xad, 0x99, 0x3c, 0xef, 0x6e, 0x5d, 0xbe,
  0xb1, 0xe4, 0x03, 0x3d, 0xff, 0x58, 0xa6, 0xbf, 0x08, 0xb2, 0x3e, 0xbe,
  0x5b, 0xdf, 0xcd, 0xbd, 0xf7, 0x56, 0x32, 0xbf, 0xdb, 0x3a, 0xf1, 0x3b,
  0x6b, 0xdb, 0x2a, 0x3c, 0x4d, 0x22, 0x5b, 0x3e, 0x3f, 0xe7, 0x59, 0x3d,
  0xa7, 0x3c, 0xcc, 0xbd, 0x9f, 0x09, 0x0e, 0x3e, 0x1f, 0x73, 0x7d, 0xbf,
  0x8e, 0x97, 0xd9, 0xbe, 0x13, 0xd6, 0xcc, 0xbe, 0x3f, 0x10, 0xb0, 0x3e,
  0x4f, 0x2b, 0x4a, 0x3d, 0xec, 0xf5, 0xce, 0x3e, 0xac, 0x7d, 0xc8, 0x3d,
  0xa9, 0xfa, 0x35, 0x3f, 0x9e, 0xb5, 0x4b, 0xbd, 0xaf, 0xdd, 0x43, 0xbf,
  0x44, 0x51, 0x0d, 0xbd, 0xf5, 0xba, 0x19, 0x3f, 0xcd, 0xf1, 0x9e, 0xbe,
  0x39, 0x71, 0xb8, 0x3e, 0x7c, 0xb4, 0xae, 0xbf, 0xf4, 0x23, 0x82, 0x3d,
  0xc9, 0x23, 0xb7, 0xbe, 0x5e, 0x8c, 0x96, 0xbf, 0x90, 0x3a, 0x16, 0xbe,
  0x4b, 0x44, 0x24, 0xbe, 0xd0, 0x24, 0x1f, 0x3f, 0xca, 0xf8, 0x70, 0x3f,
  0xe2, 0xa6, 0x26, 0xba, 0xd7, 0xc9, 0x45, 0x3d, 0x69, 0xa7, 0x1a, 0xbf,
  0xca, 0x58, 0x84, 0xbd, 0x21, 0xec, 0x93, 0x3f, 0x25, 0x87, 0x5f, 0xbc,
  0x7b, 0x56, 0xe3, 0xbe, 0xfd, 0xa8, 0x1f, 0xbf, 0x91, 0x70, 0xa7, 0xbe,
  0x9a, 0x62, 0xd3, 0x3e, 0x81, 0xde, 0xd7, 0x3d, 0x4d, 0x6d, 0xdc, 0x3e,
  0xfe, 0xaf, 0x9c, 0xbe, 0x5d, 0x3e, 0x9e, 0xbe, 0xbe, 0x84, 0xa1, 0x3f,
  0xfd, 0xb0, 0x85, 0xbe, 0xbc, 0xf0, 0x22, 0xbf, 0x39, 0x45, 0x11, 0x3f,
  0x4d, 0x08, 0x0e, 0xbe, 0x2f, 0xb5, 0x77, 0x3f, 0x32, 0x40, 0x06, 0xbf,
  0xb0, 0x3b, 0xd8, 0x3e, 0xe0, 0xd1, 0xcf, 0x3c, 0x90, 0x19, 0xa3, 0xbe,
  0x23, 0xb0, 0x23, 0x3e, 0x40, 0x68, 0xc3, 0x3d, 0x45, 0x28, 0x8a, 0xbf,
  0x91, 0xd4, 0x21, 0xbb, 0x35, 0x25, 0xe9, 0x3f, 0x3d, 0xaf, 0xa8, 0xbe,
  0x79, 0xa2, 0xf2, 0x3c, 0x61, 0xe4, 0x0b, 0x3d, 0xc2, 0xed, 0xda, 0x3d,
  0x10, 0xd9, 0x78, 0xbc, 0x8d, 0xe5, 0x88, 0xbe, 0xba, 0xff, 0x70, 0x3e,
  0x56, 0x3f, 0x23, 0xbd, 0xb6, 0xfb, 0x91, 0xbe, 0x4b, 0xa2, 0xb7, 0x3f,
  0x23, 0x6a, 0x17, 0xbd, 0x28, 0xb7, 0x3c, 0xbf, 0xef, 0x56, 0x13, 0x3f,
  0x07, 0x50, 0xbf, 0xbe, 0xdf, 0x49, 0x5a, 0x3f, 0x6a, 0x1c, 0x03, 0xbe,
  0x2e, 0x94, 0x14, 0xbc, 0x4d, 0x4c, 0x38, 0xbe, 0x77, 0xba, 0xda, 0xbe,
  0x98, 0xef, 0xe4, 0x3e, 0x9d, 0x24, 0x2d, 0xbe, 0x0d, 0xce, 0x42, 0xbf,
  0x0c, 0xf0, 0x12, 0xbe, 0x31, 0x26, 0x32, 0x3e, 0x3b, 0xc7, 0xe2, 0x3e,
  0xe4, 0x3e, 0x1d, 0x3f, 0x06, 0xfc, 0x03, 0x3f, 0x2a, 0x91, 0x5c, 0xbf,
  0xed, 0xd7, 0xc3, 0x3c, 0x21, 0x45, 0xa4, 0x3e, 0x10, 0x8f, 0x94, 0x3d,
  0xb8, 0xee, 0x24, 0xbf, 0x9c, 0xc9, 0xce, 0x3e, 0xc8, 0xe0, 0x23, 0x3e,
  0x1d, 0x08, 0x6e, 0x3d, 0xae, 0xc9, 0xc8, 0x3f, 0x31, 0x32, 0x4e, 0xbf,
  0x86, 0x07, 0xce, 0x3c, 0xd9, 0x33, 0xa7, 0x3e, 0x84, 0x04, 0xc2, 0x3d,
  0x37, 0xcd, 0xf8, 0x3c, 0xa2, 0xad, 0x42, 0x3c, 0xae, 0x2a, 0x0e, 0x3e,
  0xca, 0x6f, 0xd0, 0x3c, 0x15, 0xfb, 0xfc, 0xbd, 0xc8, 0x71, 0xb7, 0x3f,
  0x70, 0x16, 0xcb, 0x3e, 0x14, 0x7a, 0x57, 0xbe, 0xb6, 0xde, 0x25, 0xbe,
  0xa2, 0x0a, 0xb3, 0xbd, 0x48, 0x49, 0x54, 0xbe, 0x04, 0x18, 0xc1, 0x3e,
  0x14, 0xd0, 0x62, 0x3a, 0x96, 0xca, 0x97, 0x3d, 0x40, 0xa6, 0xa8, 0x3e,
  0x3d, 0x3e, 0xfa, 0x3e, 0xd8, 0x81, 0xa5, 0x3e, 0xbb, 0x32, 0x20, 0xbf,
  0xbb, 0x6e, 0xf7, 0x3e, 0x51, 0xf7, 0xbd, 0xbe, 0xf8, 0x4a, 0x37, 0x3f,
  0xa4, 0xfc, 0xb5, 0x3d, 0xb9, 0xae, 0x21, 0x3f, 0xeb, 0x34, 0x79, 0xbf,
  0xa7, 0x32, 0x1e, 0xbf, 0x23, 0x60, 0x3d, 0x3f, 0xbf, 0x97, 0xba, 0xbe,
  0x88, 0xde, 0x73, 0x3e, 0x5b, 0xe9, 0xc5, 0xbe, 0x14, 0xdf, 0x46, 0xbf,
  0x60, 0xcb, 0x95, 0xbd, 0x01, 0x51, 0x86, 0x3f, 0x78, 0x09, 0x74, 0x3f,
  0xb6, 0x14, 0xa1, 0x3e, 0xf8, 0xee, 0xf5, 0x3e, 0x48, 0x35, 0x5f, 0xbf,
  0xac, 0x72, 0x10, 0x3c, 0xd6, 0xc1, 0xf7, 0x3d, 0x5c, 0x98, 0x1e, 0xbe,
  0x9e, 0xb2, 0xfb, 0xbe, 0xda, 0x62, 0xdf, 0xbe, 0x68, 0x67, 0x6f, 0x3f,
  0xe0, 0x57, 0x9f, 0x3e, 0x2a, 0x89, 0xe7, 0x3e, 0x75, 0x85, 0xe1, 0xbe,
  0xdd, 0x82, 0x5c, 0x3d, 0x10, 0x8e, 0x4f, 0xbf, 0x78, 0xf3, 0xf9, 0x3e,
  0x65, 0xf3, 0xdf, 0xbe, 0x26, 0xc5, 0xb7, 0xbb, 0xbe, 0x63, 0x53, 0x3f,
  0x9f, 0xf0, 0xcc, 0x3d, 0xdb, 0xc9, 0x4e, 0x3e, 0xc2, 0xf9, 0xe2, 0x3d,
  0x81, 0x71, 0x0a, 0x3f, 0x83, 0x9a, 0x41, 0x3e, 0xd7, 0xd3, 0xe1, 0xbc,
  0x5f, 0x89, 0x3f, 0x3d, 0xca, 0x56, 0x9f, 0xbe, 0x22, 0xfb, 0xe6, 0x3e,
  0xbd, 0x31, 0x89, 0x3d, 0x95, 0xe7, 0xc8, 0x3e, 0x16, 0x4c, 0x9d, 0xbc,
  0x8a, 0xaa, 0xb9, 0xbe, 0x9f, 0x72, 0xe2, 0x3d, 0xa9, 0xfe, 0xcf, 0x3e,
  0x73, 0xa3, 0xac, 0xbb, 0xd3, 0x82, 0xc6, 0x3f, 0x09, 0x2f, 0x1c, 0x3e,
  0x60, 0xcb, 0x55, 0xbe, 0xee, 0x8f, 0x79, 0xbf, 0xa1, 0xb1, 0x86, 0xbe,
  0xe8, 0x30, 0x52, 0x3e, 0xef, 0x4c, 0x65, 0x3e, 0x8c, 0xd5, 0x2e, 0x3f,
  0x69, 0x6f, 0x2a, 0xbe, 0xe6, 0xb6, 0x5f, 0xbe, 0xd8, 0x9c, 0xb9, 0x3f,
  0xe2, 0xce, 0x20, 0xbe, 0xcf, 0x88, 0x9e, 0xbf, 0x14, 0xe2, 0x03, 0x3f,
  0xa2, 0xdd, 0xa2, 0xbd, 0x69, 0xec, 0xff, 0x3e, 0x3d, 0x80, 0xea, 0xbe,
  0x2e, 0x88, 0x8b, 0x3e, 0x70, 0x37, 0xdb, 0x3e, 0x54, 0x61, 0x70, 0xbe,
  0x85, 0xc8, 0x36, 0xbe, 0x32, 0x5f, 0x30, 0xbe, 0xec, 0xc7, 0x0a, 0xbf,
  0xc6, 0xde, 0xa2, 0x3d, 0x78, 0xdd, 0x9f, 0xbf, 0x93, 0x62, 0x06, 0x3f,
  0x34, 0x26, 0x89, 0xbc, 0x6d, 0x5b, 0xd6, 0x3f, 0x32, 0x08, 0xe3, 0xbe,
  0x1e, 0x60, 0x6b, 0xbd, 0x47, 0xf9, 0xb0, 0x3e, 0x97, 0x0c, 0xaa, 0xbd,
  0x1f, 0xc8, 0xd7, 0xbc, 0x69, 0x1a, 0x93, 0x3e, 0x6c, 0xd6, 0x1b, 0x3f,
  0x5f, 0x69, 0x93, 0xbc, 0x62, 0xc6, 0xc0, 0x3f, 0x33, 0x3e, 0x06, 0xbf,
  0xb3, 0x3a, 0x0b, 0xbc, 0xf0, 0xc0, 0x07, 0xb9, 0x06, 0xf2, 0x1c, 0x3d,
  0x52, 0x25, 0x2f, 0x3b, 0xd1, 0xc2, 0xe1, 0xbd, 0x6b, 0x40, 0xab, 0x3e,
  0xda, 0xbf, 0x63, 0xbc, 0x9c, 0xc5, 0x5d, 0x3c, 0x51, 0xab, 0xa8, 0x3f,
  0xf6, 0xb1, 0x9a, 0xbd, 0xd1, 0x41, 0x9f, 0xbf, 0xa8, 0xa1, 0x88, 0x3e,
  0x90, 0xcb, 0x9d, 0xbc, 0x08, 0x25, 0x1a, 0x3f, 0x26, 0x40, 0x83, 0xbd,
  0x80, 0x96, 0x36, 0x3e, 0x4b, 0xa2, 0xf2, 0xba, 0x46, 0x70, 0x44, 0xbf,
  0x25, 0x81, 0xb4, 0x3c, 0x53, 0xd7, 0x1d, 0xbe, 0x00, 0xf8, 0xaa, 0xbf,
  0x29, 0xb8, 0x20, 0xbf, 0x3c, 0x28, 0xb4, 0xbe, 0x63, 0xd3, 0xe1, 0x3d,
  0x59, 0x5c, 0x2a, 0x3f, 0x11, 0xab, 0x65, 0xbf, 0xb7, 0xb6, 0x5a, 0xbe,
  0x44, 0x86, 0x1e, 0x3c, 0xa4, 0xbb, 0xfc, 0x3e, 0x26, 0xc0, 0x93, 0x3e,
  0xc8, 0x06, 0xe2, 0x3e, 0x05, 0x45, 0x18, 0x3f, 0xa7, 0xea, 0x9d, 0xbd,
  0xd6, 0xe5, 0xe3, 0x3e, 0x28, 0xda, 0x97, 0xbe, 0x26, 0xac, 0x32, 0xbe,
  0x47, 0x2d, 0xce, 0xbd, 0x8b, 0xe3, 0x00, 0xbf, 0xb5, 0x6f, 0xd3, 0x3e,
  0x95, 0x28, 0x99, 0xbb, 0xa5, 0x98, 0x1d, 0x3f, 0x7e, 0x32, 0x5a, 0x3f,
  0xc5, 0xd8, 0xf0, 0x3e, 0x80, 0xcf, 0x96, 0x3e, 0x6a, 0xd3, 0x1e, 0xbf,
  0x37, 0x9f, 0xe1, 0xbd, 0x39, 0xd4, 0xc1, 0x3e, 0xc9, 0x6b, 0xa8, 0xbe,
  0x3c, 0xc4, 0x1c, 0xbe, 0x3e, 0x06, 0xb7, 0xbf, 0xde, 0x31, 0xa8, 0xbe,
  0x48, 0x94, 0x0f, 0xbe, 0x79, 0x83, 0xbf, 0xbd, 0x02, 0x0f, 0xa5, 0x3d,
  0xf2, 0xf9, 0x9d, 0xb9, 0x1e, 0x7f, 0xbb, 0x3b, 0x49, 0x78, 0x93, 0x3f,
  0x24, 0xa9, 0x00, 0xbf, 0xf6, 0xf3, 0x79, 0x3f, 0x28, 0x8e, 0x22, 0x3f,
  0x84, 0x9b, 0x28, 0x3e, 0xa6, 0x19, 0x5f, 0xbe, 0xc9, 0x4d, 0x0c, 0xbf,
  0xb2, 0x4b, 0x21, 0x3f, 0x84, 0xeb, 0x1d, 0xbd, 0x3f, 0x3f, 0xf0, 0xbd,
  0x19, 0x94, 0x25, 0x3e, 0x72, 0xb3, 0x95, 0x3e, 0x4a, 0xe0, 0x6f, 0x3f,
  0x7c, 0x95, 0xf4, 0x3e, 0xfe, 0xcd, 0x64, 0x3f, 0x93, 0x4a, 0xa5, 0x3e,
  0xab, 0x30, 0x13, 0xbf, 0x3e, 0xde, 0x73, 0xbe, 0x12, 0xa8, 0x67, 0xbe,
  0xf8, 0xd9, 0x93, 0x3e, 0x90, 0x33, 0x4b, 0x3f, 0x06, 0x36, 0x1e, 0x3f,
  0x39, 0x54, 0x27, 0x3e, 0x2c, 0xc4, 0xa4, 0x3e, 0x85, 0x73, 0xc5, 0x3c,
  0x17, 0xdb, 0xe4, 0xbd, 0xbb, 0xaf, 0x63, 0x3f, 0x71, 0x5b, 0xbc, 0x3d,
  0xe2, 0xf8, 0xae, 0xbe, 0x9b, 0xb3, 0x03, 0xbf, 0x4e, 0xc7, 0xd1, 0x3c,
  0x0b, 0x6e, 0xa0, 0x3d, 0x3c, 0x3e, 0xd7, 0x3e, 0x3f, 0x15, 0x27, 0x3f,
  0x53, 0x41, 0x04, 0x3f, 0x0f, 0x82, 0xfd, 0xbe, 0x2f, 0x6d, 0xaf, 0x3e,
  0x53, 0xac, 0xae, 0xbe, 0x35, 0xf4, 0x52, 0xbf, 0x46, 0x05, 0x33, 0x3f,
  0x41, 0x51, 0x10, 0xbe, 0x92, 0x34, 0x0d, 0x3f, 0xaa, 0x3b, 0xfb, 0xbd,
  0xb2, 0x85, 0xb5, 0x3e, 0x13, 0x03, 0xd2, 0xbd, 0xfb, 0xe3, 0xf4, 0xbe,
  0xfa, 0xfe, 0xd0, 0x3d, 0x9b, 0x7a, 0x59, 0xbe, 0x73, 0x84, 0x4d, 0xbf,
  0x9c, 0xd3, 0xd4, 0x3b, 0xd0, 0xbc, 0x0c, 0xbf, 0x64, 0xfb, 0x0d, 0x3f,
  0xe1, 0x92, 0x85, 0x3d, 0x25, 0xc8, 0xea, 0x3f, 0x29, 0xea, 0x6f, 0xbf,
  0x5e, 0x40, 0x01, 0xbd, 0x30, 0x6b, 0x00, 0x3e, 0xe7, 0x4c, 0x36, 0xbf,
  0xe6, 0x11, 0x48, 0x3c, 0x30, 0x0c, 0x0a, 0x3d, 0x6a, 0x7f, 0x24, 0xbf,
  0x8f, 0x94, 0x47, 0xbe, 0x3b, 0x18, 0xb2, 0x3f, 0x3b, 0xbe, 0x60, 0xbe,
  0x2c, 0xab, 0x46, 0x3e, 0x1f, 0xd7, 0x94, 0xbf, 0x01, 0xcc, 0x56, 0xbf,
  0x81, 0x00, 0xb3, 0x3e, 0xd2, 0x9e, 0xa2, 0xbd, 0xc2, 0xe9, 0x4e, 0xbf,
  0xe7, 0xe8, 0x48, 0xbe, 0xbb, 0xe4, 0x67, 0x3e, 0x93, 0x76, 0x3a, 0x3e,
  0x9d, 0xbf, 0xfb, 0xbe, 0x06, 0xac, 0x20, 0xbf, 0xee, 0x1b, 0x24, 0xbc,
  0xe5, 0x2d, 0x1c, 0x3f, 0x02, 0xa5, 0x86, 0xbf, 0x0f, 0x77, 0x38, 0xbe,
  0x25, 0x75, 0x9d, 0xbd, 0x3a, 0x1a, 0xe6, 0x3e, 0x87, 0x14, 0xac, 0x3e,
  0x5d, 0xc2, 0xdc, 0x3e, 0xfa, 0x3f, 0xcd, 0x3e, 0x0f, 0xff, 0x58, 0xbe,
  0x82, 0x6e, 0xec, 0xbd, 0x3f, 0xfe, 0xed, 0x3f, 0xbf, 0xb7, 0x08, 0x3e,
  0x9f, 0x4e, 0x8e, 0x3d, 0x04, 0xc7, 0x4d, 0xbf, 0x51, 0xc0, 0x9d, 0xbe,
  0xa9, 0xbd, 0xc6, 0x3b, 0xef, 0x1b, 0x29, 0x3c, 0x5d, 0x63, 0x00, 0x3f,
  0xdd, 0xdf, 0x90, 0x3d, 0x76, 0x67, 0xaa, 0xbe, 0x5a, 0x0e, 0xb3, 0x3f,
  0x24, 0x9a, 0xc0, 0x3c, 0xee, 0x78, 0xbd, 0xbf, 0x43, 0x16, 0xc9, 0xbe,
  0xcb, 0x99, 0x56, 0x3e, 0xdc, 0x5d, 0x7a, 0xbf, 0x2f, 0x73, 0x68, 0x3f,
  0xa1, 0xe3, 0x80, 0x3d, 0x41, 0xdc, 0xde, 0x3e, 0x25, 0xd3, 0xf0, 0x3e,
  0xd2, 0x12, 0x1c, 0xbe, 0x4d, 0x5e, 0x2c, 0x3e, 0x4d, 0xa2, 0xc5, 0xbe,
  0x00, 0x00, 0x00, 0x00, 0x76, 0xff, 0xff, 0xff, 0x04, 0x00, 0x00, 0x00,
  0x08, 0x00, 0x00, 0x00, 0xff, 0xff, 0xff, 0xff, 0x0c, 0x00, 0x00, 0x00,
  0x00, 0x00, 0x00, 0x00, 0x00, 0x00, 0x00, 0x00, 0x00, 0x00, 0x00, 0x00,
  0x96, 0xff, 0xff, 0xff, 0x04, 0x00, 0x00, 0x00, 0x14, 0x00, 0x00, 0x00,
  0x82, 0x2e, 0xee, 0x3e, 0xfb, 0x26, 0x20, 0xbd, 0x4f, 0x7f, 0xee, 0xbd,
  0xb9, 0x8c, 0x22, 0xbe, 0x81, 0xe6, 0x8d, 0xbe, 0xb6, 0xff, 0xff, 0xff,
  0x04, 0x00, 0x00, 0x00, 0x3c, 0x00, 0x00, 0x00, 0xb4, 0x52, 0x49, 0xbc,
  0x14, 0x45, 0xe9, 0x3d, 0x99, 0xc8, 0x35, 0x3e, 0x77, 0x9b, 0xe5, 0x3c,
  0x08, 0x1b, 0xb6, 0x3e, 0xf1, 0xae, 0xad, 0x3d, 0xe3, 0xeb, 0x92, 0x3d,
  0xaa, 0xda, 0x23, 0x3e, 0x8c, 0x32, 0x7c, 0x3e, 0x2c, 0x39, 0x54, 0x3e,
  0xcd, 0x0a, 0xe9, 0x3b, 0x96, 0x42, 0x04, 0x3f, 0xbb, 0x76, 0x94, 0x3e,
  0xdd, 0x37, 0x37, 0xbd, 0xe1, 0x42, 0xbb, 0x3d, 0x00, 0x00, 0x06, 0x00,
  0x08, 0x00, 0x04, 0x00, 0x06, 0x00, 0x00, 0x00, 0x04, 0x00, 0x00, 0x00,
  0xf0, 0x00, 0x00, 0x00, 0x34, 0xd6, 0x29, 0xbe, 0xd1, 0xc6, 0x47, 0xbe,
  0x50, 0x8c, 0x1c, 0xbe, 0xd2, 0x76, 0x07, 0x3d, 0x8f, 0x19, 0xef, 0xbd,
  0x3d, 0x01, 0xe4, 0x3c, 0x8a, 0x12, 0xdd, 0xbc, 0x18, 0x97, 0xe6, 0xbd,
  0x81, 0x8b, 0x31, 0xbd, 0x2b, 0x1d, 0xbe, 0xbd, 0x7d, 0x79, 0x58, 0x3e,
  0xd7, 0xb6, 0xec, 0x3c, 0xb4, 0x7a, 0x9d, 0xbb, 0x08, 0xbd, 0x53, 0x3c,
  0x88, 0x45, 0x83, 0x3e, 0x49, 0x3e, 0x9d, 0xbd, 0xe0, 0x01, 0xc3, 0xb9,
  0xc9, 0xc7, 0x9f, 0x3c, 0x7d, 0x7b, 0x3e, 0xbe, 0xf4, 0xba, 0x0f, 0xbe,
  0xf2, 0x76, 0x22, 0xbc, 0xe1, 0x60, 0x31, 0x3e, 0x55, 0xce, 0x28, 0xbd,
  0xd7, 0x9c, 0xb1, 0xbe, 0x80, 0xc0, 0xca, 0x3d, 0xd5, 0x3e, 0x47, 0x3d,
  0xa4, 0xcc, 0x92, 0x3d, 0xa4, 0xf1, 0x96, 0x3e, 0x60, 0x88, 0x23, 0xbe,
  0xab, 0x3d, 0x11, 0x3e, 0x53, 0x02, 0x53, 0xbe, 0x88, 0xd2, 0x07, 0xbe,
  0x7f, 0x1c, 0x26, 0xbd, 0x9e, 0xfb, 0xf1, 0x3d, 0xfd, 0xdf, 0x56, 0xbd,
  0x65, 0xdc, 0xd7, 0x3d, 0xeb, 0xc5, 0xea, 0xbc, 0x51, 0x85, 0xbf, 0xbd,
  0xf5, 0x42, 0xfb, 0xbd, 0xa4, 0x94, 0xde, 0xbd, 0x08, 0x31, 0xb7, 0x3d,
  0x70, 0xa6, 0x02, 0x3c, 0x4b, 0xfb, 0xb7, 0xbe, 0xc3, 0x99, 0xc4, 0x3c,
  0xc7, 0x2e, 0x26, 0x3e, 0x52, 0x08, 0xb8, 0x3d, 0x38, 0x99, 0xeb, 0xbc,
  0x1e, 0x3e, 0x47, 0x3d, 0x72, 0x4a, 0xc2, 0xbe, 0x59, 0x6a, 0x19, 0xbe,
  0xa6, 0x7f, 0x87, 0xbb, 0x4b, 0x59, 0xc0, 0xbd, 0x7b, 0x6c, 0x84, 0xbe,
  0x8b, 0x94, 0x83, 0xbd, 0xdd, 0x3c, 0x9d, 0x3d, 0x16, 0x46, 0xa2, 0x3e,
  0xf5, 0xbb, 0xc8, 0xbd, 0x3b, 0xb1, 0xb7, 0xbe, 0x40, 0x7a, 0x06, 0x3d,
  0x8f, 0xca, 0xbd, 0xbd, 0x00, 0x00, 0x00, 0x00, 0x00, 0x00, 0x00, 0x00,
  0x00, 0x00, 0x00, 0x00, 0xec, 0xf9, 0xff, 0xff, 0x00, 0x00, 0x00, 0x00,
  0x00, 0x00, 0x00, 0x00, 0x00, 0x00, 0x00, 0x00, 0xfc, 0xf9, 0xff, 0xff,
  0x0f, 0x00, 0x00, 0x00, 0x4d, 0x4c, 0x49, 0x52, 0x20, 0x43, 0x6f, 0x6e,
  0x76, 0x65, 0x72, 0x74, 0x65, 0x64, 0x2e, 0x00, 0x01, 0x00, 0x00, 0x00,
  0x14, 0x00, 0x00, 0x00, 0x00, 0x00, 0x0e, 0x00, 0x18, 0x00, 0x04, 0x00,
  0x08, 0x00, 0x0c, 0x00, 0x10, 0x00, 0x14, 0x00, 0x0e, 0x00, 0x00, 0x00,
  0x3c, 0x01, 0x00, 0x00, 0x30, 0x01, 0x00, 0x00, 0x24, 0x01, 0x00, 0x00,
  0x14, 0x00, 0x00, 0x00, 0x04, 0x00, 0x00, 0x00, 0x04, 0x00, 0x00, 0x00,
  0x6d, 0x61, 0x69, 0x6e, 0x00, 0x00, 0x00, 0x00, 0x04, 0x00, 0x00, 0x00,
  0xe8, 0x00, 0x00, 0x00, 0x98, 0x00, 0x00, 0x00, 0x4c, 0x00, 0x00, 0x00,
  0x04, 0x00, 0x00, 0x00, 0xca, 0xff, 0xff, 0xff, 0x00, 0x00, 0x00, 0x08,
  0x01, 0x00, 0x00, 0x00, 0x18, 0x00, 0x00, 0x00, 0x0c, 0x00, 0x00, 0x00,
  0x04, 0x00, 0x00, 0x00, 0x7c, 0xfa, 0xff, 0xff, 0x01, 0x00, 0x00, 0x00,
  0x0b, 0x00, 0x00, 0x00, 0x03, 0x00, 0x00, 0x00, 0x0a, 0x00, 0x00, 0x00,
  0x07, 0x00, 0x00, 0x00, 0x03, 0x00, 0x00, 0x00, 0x00, 0x00, 0x0e, 0x00,
  0x18, 0x00, 0x08, 0x00, 0x0c, 0x00, 0x10, 0x00, 0x07, 0x00, 0x14, 0x00,
  0x0e, 0x00, 0x00, 0x00, 0x00, 0x00, 0x00, 0x08, 0x01, 0x00, 0x00, 0x00,
  0x1c, 0x00, 0x00, 0x00, 0x10, 0x00, 0x00, 0x00, 0x04, 0x00, 0x00, 0x00,
  0xb6, 0xff, 0xff, 0xff, 0x00, 0x00, 0x00, 0x01, 0x01, 0x00, 0x00, 0x00,
  0x0a, 0x00, 0x00, 0x00, 0x03, 0x00, 0x00, 0x00, 0x09, 0x00, 0x00, 0x00,
  0x06, 0x00, 0x00, 0x00, 0x02, 0x00, 0x00, 0x00, 0x00, 0x00, 0x0e, 0x00,
  0x1a, 0x00, 0x08, 0x00, 0x0c, 0x00, 0x10, 0x00, 0x07, 0x00, 0x14, 0x00,
  0x0e, 0x00, 0x00, 0x00, 0x00, 0x00, 0x00, 0x08, 0x01, 0x00, 0x00, 0x00,
  0x24, 0x00, 0x00, 0x00, 0x18, 0x00, 0x00, 0x00, 0x0c, 0x00, 0x00, 0x00,
  0x00, 0x00, 0x06, 0x00, 0x08, 0x00, 0x07, 0x00, 0x06, 0x00, 0x00, 0x00,
  0x00, 0x00, 0x00, 0x01, 0x01, 0x00, 0x00, 0x00, 0x09, 0x00, 0x00, 0x00,
  0x03, 0x00, 0x00, 0x00, 0x08, 0x00, 0x00, 0x00, 0x05, 0x00, 0x00, 0x00,
  0x01, 0x00, 0x00, 0x00, 0x00, 0x00, 0x0a, 0x00, 0x0c, 0x00, 0x00, 0x00,
  0x04, 0x00, 0x08, 0x00, 0x0a, 0x00, 0x00, 0x00, 0x10, 0x00, 0x00, 0x00,
  0x04, 0x00, 0x00, 0x00, 0x01, 0x00, 0x00, 0x00, 0x08, 0x00, 0x00, 0x00,
  0x02, 0x00, 0x00, 0x00, 0x00, 0x00, 0x00, 0x00, 0x04, 0x00, 0x00, 0x00,
  0x01, 0x00, 0x00, 0x00, 0x0b, 0x00, 0x00, 0x00, 0x01, 0x00, 0x00, 0x00,
  0x00, 0x00, 0x00, 0x00, 0x0c, 0x00, 0x00, 0x00, 0x68, 0x04, 0x00, 0x00,
  0xf4, 0x03, 0x00, 0x00, 0x84, 0x03, 0x00, 0x00, 0x1c, 0x03, 0x00, 0x00,
  0xd0, 0x02, 0x00, 0x00, 0x74, 0x02, 0x00, 0x00, 0x28, 0x02, 0x00, 0x00,
  0xd4, 0x01, 0x00, 0x00, 0x74, 0x01, 0x00, 0x00, 0xe0, 0x00, 0x00, 0x00,
  0x4c, 0x00, 0x00, 0x00, 0x04, 0x00, 0x00, 0x00, 0xdc, 0xfb, 0xff, 0xff,
  0x34, 0x00, 0x00, 0x00, 0x0c, 0x00, 0x00, 0x00, 0x1c, 0x00, 0x00, 0x00,
  0x14, 0x00, 0x00, 0x00, 0x04, 0x00, 0x00, 0x00, 0x02, 0x00, 0x00, 0x00,
  0xff, 0xff, 0xff, 0xff, 0x05, 0x00, 0x00, 0x00, 0xc4, 0xfb, 0xff, 0xff,
  0x08, 0x00, 0x00, 0x00, 0x49, 0x64, 0x65, 0x6e, 0x74, 0x69, 0x74, 0x79,
  0x00, 0x00, 0x00, 0x00, 0x02, 0x00, 0x00, 0x00, 0x01, 0x00, 0x00, 0x00,
  0x05, 0x00, 0x00, 0x00, 0x20, 0xfc, 0xff, 0xff, 0x80, 0x00, 0x00, 0x00,
  0x0b, 0x00, 0x00, 0x00, 0x1c, 0x00, 0x00, 0x00, 0x14, 0x00, 0x00, 0x00,
  0x04, 0x00, 0x00, 0x00, 0x02, 0x00, 0x00, 0x00, 0xff, 0xff, 0xff, 0xff,
  0x0f, 0x00, 0x00, 0x00, 0x08, 0xfc, 0xff, 0xff, 0x55, 0x00, 0x00, 0x00,
  0x73, 0x65, 0x71, 0x75, 0x65, 0x6e, 0x74, 0x69, 0x61, 0x6c, 0x5f, 0x33,
  0x39, 0x2f, 0x4c, 0x61, 0x79, 0x65, 0x72, 0x5f, 0x32, 0x2f, 0x4d, 0x61,
  0x74, 0x4d, 0x75, 0x6c, 0x3b, 0x73, 0x65, 0x71, 0x75, 0x65, 0x6e, 0x74,
  0x69, 0x61, 0x6c, 0x5f, 0x33, 0x39, 0x2f, 0x4c, 0x61, 0x79, 0x65, 0x72,
  0x5f, 0x32, 0x2f, 0x52, 0x65, 0x6c, 0x75, 0x3b, 0x73, 0x65, 0x71, 0x75,
  0x65, 0x6e, 0x74, 0x69, 0x61, 0x6c, 0x5f, 0x33, 0x39, 0x2f, 0x4c, 0x61,
  0x79, 0x65, 0x72, 0x5f, 0x32, 0x2f, 0x42, 0x69, 0x61, 0x73, 0x41, 0x64,
  0x64, 0x00, 0x00, 0x00, 0x02, 0x00, 0x00, 0x00, 0x01, 0x00, 0x00, 0x00,
  0x0f, 0x00, 0x00, 0x00, 0xb0, 0xfc, 0xff, 0xff, 0x80, 0x00, 0x00, 0x00,
  0x0a, 0x00, 0x00, 0x00, 0x1c, 0x00, 0x00, 0x00, 0x14, 0x00, 0x00, 0x00,
  0x04, 0x00, 0x00, 0x00, 0x02, 0x00, 0x00, 0x00, 0xff, 0xff, 0xff, 0xff,
  0x3c, 0x00, 0x00, 0x00, 0x98, 0xfc, 0xff, 0xff, 0x55, 0x00, 0x00, 0x00,
  0x73, 0x65, 0x71, 0x75, 0x65, 0x6e, 0x74, 0x69, 0x61, 0x6c, 0x5f, 0x33,
  0x39, 0x2f, 0x4c, 0x61, 0x79, 0x65, 0x72, 0x5f, 0x31, 0x2f, 0x4d, 0x61,
  0x74, 0x4d, 0x75, 0x6c, 0x3b, 0x73, 0x65, 0x71, 0x75, 0x65, 0x6e, 0x74,
  0x69, 0x61, 0x6c, 0x5f, 0x33, 0x39, 0x2f, 0x4c, 0x61, 0x79, 0x65, 0x72,
  0x5f, 0x31, 0x2f, 0x52, 0x65, 0x6c, 0x75, 0x3b, 0x73, 0x65, 0x71, 0x75,
  0x65, 0x6e, 0x74, 0x69, 0x61, 0x6c, 0x5f, 0x33, 0x39, 0x2f, 0x4c, 0x61,
  0x79, 0x65, 0x72, 0x5f, 0x31, 0x2f, 0x42, 0x69, 0x61, 0x73, 0x41, 0x64,
  0x64, 0x00, 0x00, 0x00, 0x02, 0x00, 0x00, 0x00, 0x01, 0x00, 0x00, 0x00,
  0x3c, 0x00, 0x00, 0x00, 0x40, 0xfd, 0xff, 0xff, 0x4c, 0x00, 0x00, 0x00,
  0x09, 0x00, 0x00, 0x00, 0x1c, 0x00, 0x00, 0x00, 0x14, 0x00, 0x00, 0x00,
  0x04, 0x00, 0x00, 0x00, 0x02, 0x00, 0x00, 0x00, 0xff, 0xff, 0xff, 0xff,
  0x0c, 0x00, 0x00, 0x00, 0x28, 0xfd, 0xff, 0xff, 0x20, 0x00, 0x00, 0x00,
  0x73, 0x65, 0x71, 0x75, 0x65, 0x6e, 0x74, 0x69, 0x61, 0x6c, 0x5f, 0x33,
  0x39, 0x2f, 0x66, 0x6c, 0x61, 0x74, 0x74, 0x65, 0x6e, 0x5f, 0x33, 0x39,
  0x2f, 0x52, 0x65, 0x73, 0x68, 0x61, 0x70, 0x65, 0x00, 0x00, 0x00, 0x00,
  0x02, 0x00, 0x00, 0x00, 0x01, 0x00, 0x00, 0x00, 0x0c, 0x00, 0x00, 0x00,
  0x06, 0xfe, 0xff, 0xff, 0x40, 0x00, 0x00, 0x00, 0x08, 0x00, 0x00, 0x00,
  0x0c, 0x00, 0x00, 0x00, 0x04, 0x00, 0x00, 0x00, 0x74, 0xfd, 0xff, 0xff,
  0x26, 0x00, 0x00, 0x00, 0x73, 0x65, 0x71, 0x75, 0x65, 0x6e, 0x74, 0x69,
  0x61, 0x6c, 0x5f, 0x33, 0x39, 0x2f, 0x50, 0x72, 0x65, 0x64, 0x69, 0x63,
  0x74, 0x65, 0x64, 0x5f, 0x50, 0x6f, 0x73, 0x74, 0x75, 0x72, 0x65, 0x2f,
  0x4d, 0x61, 0x74, 0x4d, 0x75, 0x6c, 0x00, 0x00, 0x02, 0x00, 0x00, 0x00,
  0x05, 0x00, 0x00, 0x00, 0x0f, 0x00, 0x00, 0x00, 0x56, 0xfe, 0xff, 0xff,
  0x38, 0x00, 0x00, 0x00, 0x07, 0x00, 0x00, 0x00, 0x0c, 0x00, 0x00, 0x00,
  0x04, 0x00, 0x00, 0x00, 0xc4, 0xfd, 0xff, 0xff, 0x1c, 0x00, 0x00, 0x00,
  0x73, 0x65, 0x71, 0x75, 0x65, 0x6e, 0x74, 0x69, 0x61, 0x6c, 0x5f, 0x33,
  0x39, 0x2f, 0x4c, 0x61, 0x79, 0x65, 0x72, 0x5f, 0x32, 0x2f, 0x4d, 0x61,
  0x74, 0x4d, 0x75, 0x6c, 0x00, 0x00, 0x00, 0x00, 0x02, 0x00, 0x00, 0x00,
  0x0f, 0x00, 0x00, 0x00, 0x3c, 0x00, 0x00, 0x00, 0x9e, 0xfe, 0xff, 0xff,
  0x38, 0x00, 0x00, 0x00, 0x06, 0x00, 0x00, 0x00, 0x0c, 0x00, 0x00, 0x00,
  0x04, 0x00, 0x00, 0x00, 0x0c, 0xfe, 0xff, 0xff, 0x1c, 0x00, 0x00, 0x00,
  0x73, 0x65, 0x71, 0x75, 0x65, 0x6e, 0x74, 0x69, 0x61, 0x6c, 0x5f, 0x33,
  0x39, 0x2f, 0x4c, 0x61, 0x79, 0x65, 0x72, 0x5f, 0x31, 0x2f, 0x4d, 0x61,
  0x74, 0x4d, 0x75, 0x6c, 0x00, 0x00, 0x00, 0x00, 0x02, 0x00, 0x00, 0x00,
  0x3c, 0x00, 0x00, 0x00, 0x0c, 0x00, 0x00, 0x00, 0x00, 0x00, 0x0e, 0x00,
  0x18, 0x00, 0x08, 0x00, 0x07, 0x00, 0x0c, 0x00, 0x10, 0x00, 0x14, 0x00,
  0x0e, 0x00, 0x00, 0x00, 0x00, 0x00, 0x00, 0x02, 0x38, 0x00, 0x00, 0x00,
  0x05, 0x00, 0x00, 0x00, 0x0c, 0x00, 0x00, 0x00, 0x04, 0x00, 0x00, 0x00,
  0x68, 0xfe, 0xff, 0xff, 0x1e, 0x00, 0x00, 0x00, 0x73, 0x65, 0x71, 0x75,
  0x65, 0x6e, 0x74, 0x69, 0x61, 0x6c, 0x5f, 0x33, 0x39, 0x2f, 0x66, 0x6c,
  0x61, 0x74, 0x74, 0x65, 0x6e, 0x5f, 0x33, 0x39, 0x2f, 0x43, 0x6f, 0x6e,
  0x73, 0x74, 0x00, 0x00, 0x01, 0x00, 0x00, 0x00, 0x02, 0x00, 0x00, 0x00,
  0x3e, 0xff, 0xff, 0xff, 0x58, 0x00, 0x00, 0x00, 0x04, 0x00, 0x00, 0x00,
  0x0c, 0x00, 0x00, 0x00, 0x04, 0x00, 0x00, 0x00, 0xac, 0xfe, 0xff, 0xff,
  0x3f, 0x00, 0x00, 0x00, 0x73, 0x65, 0x71, 0x75, 0x65, 0x6e, 0x74, 0x69,
  0x61, 0x6c, 0x5f, 0x33, 0x39, 0x2f, 0x50, 0x72, 0x65, 0x64, 0x69, 0x63,
  0x74, 0x65, 0x64, 0x5f, 0x50, 0x6f, 0x73, 0x74, 0x75, 0x72, 0x65, 0x2f,
  0x42, 0x69, 0x61, 0x73, 0x41, 0x64, 0x64, 0x2f, 0x52, 0x65, 0x61, 0x64,
  0x56, 0x61, 0x72, 0x69, 0x61, 0x62, 0x6c, 0x65, 0x4f, 0x70, 0x2f, 0x72,
  0x65, 0x73, 0x6f, 0x75, 0x72, 0x63, 0x65, 0x00, 0x01, 0x00, 0x00, 0x00,
  0x05, 0x00, 0x00, 0x00, 0xa2, 0xff, 0xff, 0xff, 0x50, 0x00, 0x00, 0x00,
  0x03, 0x00, 0x00, 0x00, 0x0c, 0x00, 0x00, 0x00, 0x04, 0x00, 0x00, 0x00,
  0x10, 0xff, 0xff, 0xff, 0x35, 0x00, 0x00, 0x00, 0x73, 0x65, 0x71, 0x75,
  0x65, 0x6e, 0x74, 0x69, 0x61, 0x6c, 0x5f, 0x33, 0x39, 0x2f, 0x4c, 0x61,
  0x79, 0x65, 0x72, 0x5f, 0x32, 0x2f, 0x42, 0x69, 0x61, 0x73, 0x41, 0x64,
  0x64, 0x2f, 0x52, 0x65, 0x61, 0x64, 0x56, 0x61, 0x72, 0x69, 0x61, 0x62,
  0x6c, 0x65, 0x4f, 0x70, 0x2f, 0x72, 0x65, 0x73, 0x6f, 0x75, 0x72, 0x63,
  0x65, 0x00, 0x00, 0x00, 0x01, 0x00, 0x00, 0x00, 0x0f, 0x00, 0x00, 0x00,
  0x00, 0x00, 0x0e, 0x00, 0x14, 0x00, 0x04, 0x00, 0x00, 0x00, 0x08, 0x00,
  0x0c, 0x00, 0x10, 0x00, 0x0e, 0x00, 0x00, 0x00, 0x50, 0x00, 0x00, 0x00,
  0x02, 0x00, 0x00, 0x00, 0x0c, 0x00, 0x00, 0x00, 0x04, 0x00, 0x00, 0x00,
  0x7c, 0xff, 0xff, 0xff, 0x35, 0x00, 0x00, 0x00, 0x73, 0x65, 0x71, 0x75,
  0x65, 0x6e, 0x74, 0x69, 0x61, 0x6c, 0x5f, 0x33, 0x39, 0x2f, 0x4c, 0x61,
  0x79, 0x65, 0x72, 0x5f, 0x31, 0x2f, 0x42, 0x69, 0x61, 0x73, 0x41, 0x64,
  0x64, 0x2f, 0x52, 0x65, 0x61, 0x64, 0x56, 0x61, 0x72, 0x69, 0x61, 0x62,
  0x6c, 0x65, 0x4f, 0x70, 0x2f, 0x72, 0x65, 0x73, 0x6f, 0x75, 0x72, 0x63,
  0x65, 0x00, 0x00, 0x00, 0x01, 0x00, 0x00, 0x00, 0x3c, 0x00, 0x00, 0x00,
  0x14, 0x00, 0x18, 0x00, 0x04, 0x00, 0x00, 0x00, 0x08, 0x00, 0x0c, 0x00,
  0x10, 0x00, 0x00, 0x00, 0x00, 0x00, 0x14, 0x00, 0x14, 0x00, 0x00, 0x00,
  0x44, 0x00, 0x00, 0x00, 0x01, 0x00, 0x00, 0x00, 0x24, 0x00, 0x00, 0x00,
  0x1c, 0x00, 0x00, 0x00, 0x04, 0x00, 0x00, 0x00, 0x03, 0x00, 0x00, 0x00,
  0xff, 0xff, 0xff, 0xff, 0x0c, 0x00, 0x00, 0x00, 0x01, 0x00, 0x00, 0x00,
  0x04, 0x00, 0x04, 0x00, 0x04, 0x00, 0x00, 0x00, 0x10, 0x00, 0x00, 0x00,
  0x66, 0x6c, 0x61, 0x74, 0x74, 0x65, 0x6e, 0x5f, 0x33, 0x39, 0x5f, 0x69,
  0x6e, 0x70, 0x75, 0x74, 0x00, 0x00, 0x00, 0x00, 0x03, 0x00, 0x00, 0x00,
  0x01, 0x00, 0x00, 0x00, 0x0c, 0x00, 0x00, 0x00, 0x01, 0x00, 0x00, 0x00,
  0x02, 0x00, 0x00, 0x00, 0x30, 0x00, 0x00, 0x00, 0x10, 0x00, 0x00, 0x00,
  0x0c, 0x00, 0x10, 0x00, 0x07, 0x00, 0x00, 0x00, 0x08, 0x00, 0x0c, 0x00,
  0x0c, 0x00, 0x00, 0x00, 0x00, 0x00, 0x00, 0x09, 0x09, 0x00, 0x00, 0x00,
  0x09, 0x00, 0x00, 0x00, 0x0c, 0x00, 0x0c, 0x00, 0x07, 0x00, 0x00, 0x00,
  0x00, 0x00, 0x08, 0x00, 0x0c, 0x00, 0x00, 0x00, 0x00, 0x00, 0x00, 0x16,
  0x16, 0x00, 0x00, 0x00
};

#endif //PCD_MODEL_H
