#ifndef PCD_MODEL_H
#define PCD_MODEL_H


unsigned int PCD_Model_len = 9184;
unsigned char PCD_Model[] = {
 0x28, 0x00, 0x00, 0x00, 0x54, 0x46, 0x4c, 0x33, 0x00, 0x00, 0x00, 0x00,
  0x00, 0x00, 0x00, 0x00, 0x00, 0x00, 0x00, 0x00, 0x00, 0x00, 0x12, 0x00,
  0x1c, 0x00, 0x04, 0x00, 0x08, 0x00, 0x0c, 0x00, 0x10, 0x00, 0x14, 0x00,
  0x00, 0x00, 0x18, 0x00, 0x12, 0x00, 0x00, 0x00, 0x03, 0x00, 0x00, 0x00,
  0x70, 0x23, 0x00, 0x00, 0x50, 0x1d, 0x00, 0x00, 0x38, 0x1d, 0x00, 0x00,
  0x3c, 0x00, 0x00, 0x00, 0x04, 0x00, 0x00, 0x00, 0x01, 0x00, 0x00, 0x00,
  0x0c, 0x00, 0x00, 0x00, 0x08, 0x00, 0x0c, 0x00, 0x04, 0x00, 0x08, 0x00,
  0x08, 0x00, 0x00, 0x00, 0x08, 0x00, 0x00, 0x00, 0x0d, 0x00, 0x00, 0x00,
  0x13, 0x00, 0x00, 0x00, 0x6d, 0x69, 0x6e, 0x5f, 0x72, 0x75, 0x6e, 0x74,
  0x69, 0x6d, 0x65, 0x5f, 0x76, 0x65, 0x72, 0x73, 0x69, 0x6f, 0x6e, 0x00,
  0x0e, 0x00, 0x00, 0x00, 0xf0, 0x1c, 0x00, 0x00, 0xdc, 0x1c, 0x00, 0x00,
  0xd0, 0x1b, 0x00, 0x00, 0x7c, 0x1b, 0x00, 0x00, 0x58, 0x1b, 0x00, 0x00,
  0x34, 0x1b, 0x00, 0x00, 0xe0, 0x0f, 0x00, 0x00, 0xbc, 0x01, 0x00, 0x00,
  0x78, 0x00, 0x00, 0x00, 0x6c, 0x00, 0x00, 0x00, 0x58, 0x00, 0x00, 0x00,
  0x44, 0x00, 0x00, 0x00, 0x30, 0x00, 0x00, 0x00, 0x04, 0x00, 0x00, 0x00,
  0x66, 0xe4, 0xff, 0xff, 0x04, 0x00, 0x00, 0x00, 0x10, 0x00, 0x00, 0x00,
  0x31, 0x2e, 0x35, 0x2e, 0x30, 0x00, 0x00, 0x00, 0x00, 0x00, 0x00, 0x00,
  0x00, 0x00, 0x00, 0x00, 0x00, 0x00, 0x00, 0x00, 0x00, 0x00, 0x00, 0x00,
  0x00, 0x00, 0x00, 0x00, 0x6c, 0xdd, 0xff, 0xff, 0x00, 0x00, 0x00, 0x00,
  0x00, 0x00, 0x00, 0x00, 0x00, 0x00, 0x00, 0x00, 0x7c, 0xdd, 0xff, 0xff,
  0x00, 0x00, 0x00, 0x00, 0x00, 0x00, 0x00, 0x00, 0x00, 0x00, 0x00, 0x00,
  0x8c, 0xdd, 0xff, 0xff, 0x00, 0x00, 0x00, 0x00, 0x00, 0x00, 0x00, 0x00,
  0x00, 0x00, 0x00, 0x00, 0x9c, 0xdd, 0xff, 0xff, 0x00, 0x00, 0x00, 0x00,
  0xc6, 0xe4, 0xff, 0xff, 0x04, 0x00, 0x00, 0x00, 0x2c, 0x01, 0x00, 0x00,
  0x22, 0x2e, 0xdd, 0xbd, 0x34, 0x32, 0x9a, 0xbf, 0xfd, 0xbe, 0x89, 0x3f,
  0x11, 0xd5, 0x36, 0x3e, 0x60, 0x29, 0x1a, 0xbf, 0x55, 0x30, 0xee, 0x3e,
  0x95, 0x0d, 0xbd, 0x3e, 0x85, 0x31, 0x7d, 0x3f, 0xb2, 0xbb, 0xfd, 0xbe,
  0xb1, 0xfd, 0x5a, 0xbf, 0xbc, 0xc6, 0x8d, 0xbf, 0xb2, 0x8c, 0x6d, 0xbf,
  0x16, 0xfc, 0xc3, 0x3d, 0xb5, 0x36, 0x73, 0x3e, 0x3b, 0xe7, 0x21, 0xbf,
  0x4a, 0x6c, 0xb1, 0x3e, 0x81, 0x52, 0x00, 0x3f, 0x4c, 0x68, 0x07, 0x3f,
  0x65, 0x17, 0x94, 0x3f, 0x5a, 0xf9, 0x25, 0x3f, 0x8d, 0x7c, 0xd4, 0xbd,
  0x97, 0x4a, 0x59, 0xbf, 0x88, 0x5c, 0xd4, 0xbf, 0xe1, 0x15, 0xe1, 0x3d,
  0xdf, 0x8c, 0xc2, 0x3e, 0x7f, 0x05, 0xe8, 0x3d, 0xae, 0xe2, 0xd5, 0xbe,
  0x37, 0x35, 0x05, 0x3e, 0x6e, 0xcc, 0xaa, 0xbf, 0x0d, 0x87, 0x3a, 0xbf,
  0xbd, 0x8b, 0x4c, 0x3e, 0x90, 0xb2, 0x02, 0x3f, 0x70, 0x4b, 0x91, 0xbc,
  0x7c, 0x69, 0x79, 0xbf, 0x8a, 0xa7, 0x29, 0x3f, 0xda, 0x67, 0x6e, 0x3e,
  0x4b, 0x20, 0x89, 0xbf, 0xbe, 0xf6, 0x04, 0xbf, 0x53, 0x32, 0x14, 0x3f,
  0x9e, 0x90, 0x8f, 0xbf, 0x28, 0x64, 0xb1, 0x3e, 0xc2, 0x8b, 0x4b, 0xbf,
  0x65, 0x2b, 0xd4, 0xbd, 0x22, 0xdf, 0xa7, 0x3e, 0xdc, 0x87, 0xcc, 0x3e,
  0x34, 0xe0, 0x02, 0xc0, 0x97, 0x82, 0xb4, 0xbb, 0x18, 0x9e, 0xfd, 0xbe,
  0x77, 0x85, 0x81, 0xbf, 0x64, 0x5f, 0x9a, 0xbf, 0x4b, 0xce, 0xfe, 0xbf,
  0x52, 0x0d, 0x19, 0xbe, 0x6d, 0x96, 0x19, 0x3f, 0x0b, 0xff, 0xb9, 0x3e,
  0x6f, 0x98, 0x95, 0x3f, 0xb9, 0xb0, 0x7d, 0xbd, 0x88, 0x87, 0x35, 0x3f,
  0x7e, 0x6e, 0x08, 0x3f, 0x2b, 0x49, 0x70, 0x3f, 0xd5, 0xd6, 0x97, 0x3e,
  0xdb, 0xb4, 0x45, 0x3f, 0xda, 0xe1, 0xc5, 0xbf, 0x7e, 0x22, 0x31, 0xbf,
  0xef, 0xa3, 0xd5, 0xbc, 0x5c, 0x83, 0xa3, 0xbf, 0xfc, 0xc1, 0x12, 0x3f,
  0x10, 0x5c, 0x7d, 0x3f, 0xae, 0x2d, 0xcb, 0x3e, 0x17, 0x20, 0xdd, 0xbf,
  0x95, 0x7b, 0xaf, 0xbf, 0xcd, 0x17, 0x84, 0x3f, 0x39, 0x62, 0x52, 0x3e,
  0x1e, 0x7e, 0x0f, 0xc0, 0xf1, 0x65, 0x0f, 0xbf, 0x29, 0x86, 0x30, 0x3f,
  0x00, 0x00, 0x00, 0x00, 0x00, 0x00, 0x00, 0x00, 0x06, 0xe6, 0xff, 0xff,
  0x04, 0x00, 0x00, 0x00, 0x10, 0x0e, 0x00, 0x00, 0x81, 0x40, 0x39, 0x3f,
  0x14, 0xb8, 0x17, 0xbf, 0x4f, 0x1f, 0x47, 0xbe, 0x48, 0x54, 0x00, 0xbf,
  0x94, 0xa7, 0x30, 0x3e, 0xae, 0xae, 0x21, 0x3f, 0x98, 0x22, 0x83, 0x3f,
  0x8e, 0xd0, 0x1c, 0xbf, 0x8d, 0x1e, 0xc9, 0x3e, 0x24, 0x5d, 0x1c, 0xbf,
  0x0c, 0xc5, 0xbc, 0x3d, 0x07, 0x64, 0x99, 0x3e, 0x9b, 0x70, 0x49, 0xbe,
  0xcd, 0xab, 0xe9, 0xbe, 0xc9, 0x38, 0xa3, 0x3e, 0x08, 0x30, 0xba, 0x3e,
  0x42, 0xfe, 0xe9, 0xbe, 0x15, 0xf9, 0x97, 0x3e, 0x04, 0x8e, 0x81, 0xbe,
  0x43, 0x36, 0x5e, 0xbe, 0x64, 0xe8, 0x04, 0x3f, 0x8d, 0xad, 0x07, 0x3f,
  0x45, 0x85, 0xf1, 0x3d, 0x18, 0x27, 0x95, 0xbe, 0x1f, 0x9a, 0x26, 0x3e,
  0x06, 0xbe, 0xf2, 0x3e, 0x2c, 0x67, 0xa7, 0x3d, 0x78, 0xdd, 0x24, 0xbe,
  0x2d, 0xe2, 0x86, 0x3f, 0x91, 0x25, 0x04, 0x3e, 0x08, 0xee, 0x5a, 0x3e,
  0xef, 0x89, 0x03, 0x3f, 0xae, 0x52, 0xae, 0x3e, 0x19, 0x00, 0xcb, 0x3e,
  0xf3, 0xf7, 0x0f, 0x3f, 0xf5, 0x0a, 0x3e, 0xbe, 0x63, 0x14, 0x6a, 0x3c,
  0x1c, 0x65, 0x86, 0xbd, 0x41, 0x09, 0x00, 0x3c, 0x55, 0x2b, 0x05, 0xbd,
  0x92, 0xd5, 0x7e, 0x3d, 0xc5, 0x0a, 0xed, 0x3d, 0x9d, 0x6e, 0xa4, 0x3c,
  0xa4, 0x4d, 0xbb, 0xbe, 0xcb, 0xfb, 0x53, 0xbe, 0xbf, 0xb2, 0x71, 0x3f,
  0x74, 0xe8, 0x9e, 0xbe, 0x05, 0x67, 0xc7, 0xbd, 0x1f, 0xdc, 0x2f, 0x3f,
  0x60, 0xbf, 0xc5, 0xbd, 0xb6, 0x5e, 0x80, 0x3e, 0xf4, 0x21, 0x4d, 0x3e,
  0x4f, 0xfd, 0xb7, 0x3d, 0x8c, 0x2a, 0x84, 0x3f, 0x0f, 0x97, 0xa6, 0x3d,
  0x69, 0xa8, 0x8c, 0x3f, 0x34, 0x88, 0x44, 0xbf, 0x5d, 0x59, 0xa8, 0x3d,
  0x6e, 0x2f, 0x24, 0xbc, 0xb4, 0xfb, 0xda, 0x3c, 0x02, 0x25, 0xe1, 0xbe,
  0xa9, 0x75, 0xea, 0x3d, 0x52, 0xe9, 0x8b, 0xbd, 0xdc, 0x2e, 0xc0, 0x3e,
  0xb4, 0xee, 0xbd, 0xbe, 0x71, 0x79, 0x01, 0x3d, 0x81, 0x8b, 0x56, 0xbf,
  0x03, 0x0f, 0x07, 0xbf, 0x12, 0xef, 0x06, 0x3e, 0x9a, 0x6d, 0x32, 0xbe,
  0x67, 0x6b, 0x26, 0x3e, 0x8d, 0x0a, 0x7f, 0x3f, 0xfe, 0x93, 0xd5, 0x3e,
  0x3c, 0x7d, 0xf6, 0x3e, 0xd4, 0x8d, 0x24, 0xbd, 0x42, 0x6f, 0x7b, 0x3e,
  0xbd, 0x70, 0xbc, 0xbe, 0x01, 0xd2, 0x86, 0x3e, 0xc1, 0xe2, 0xf4, 0x3e,
  0xcd, 0x43, 0x26, 0x3e, 0x7e, 0x1c, 0x4d, 0x3c, 0x8f, 0x08, 0xe2, 0x3d,
  0x65, 0xdc, 0x76, 0x3e, 0xf0, 0x7c, 0x0b, 0x3e, 0x01, 0x1b, 0x8f, 0x3e,
  0x03, 0x63, 0x4d, 0x3e, 0xaf, 0xab, 0xbd, 0x3e, 0xc3, 0xe4, 0x22, 0xbf,
  0x5e, 0x5f, 0xdb, 0xbd, 0x5b, 0x3d, 0x85, 0x3e, 0x3d, 0x73, 0x83, 0x3e,
  0x0c, 0x49, 0xec, 0xbe, 0xa1, 0xc1, 0x03, 0xbf, 0x16, 0x8c, 0x29, 0x3d,
  0x6a, 0x2a, 0x9c, 0xbe, 0xe8, 0x14, 0xfb, 0x3d, 0x57, 0x08, 0xe7, 0x3e,
  0x27, 0x5a, 0x15, 0xbc, 0x88, 0x4d, 0x71, 0xbe, 0xaf, 0x98, 0x0f, 0x3f,
  0xe2, 0xaa, 0xeb, 0x3d, 0x08, 0xa7, 0x22, 0xbe, 0xbc, 0xaa, 0x26, 0x3e,
  0x2d, 0x3b, 0xd1, 0xbe, 0x29, 0x71, 0xa5, 0xbd, 0xa0, 0xb9, 0xec, 0xbd,
  0x7b, 0xa3, 0xb4, 0xbe, 0x06, 0x7a, 0x21, 0x3d, 0xe1, 0x6c, 0xf9, 0xbc,
  0x18, 0x97, 0x71, 0x3e, 0x06, 0x88, 0x1c, 0x3f, 0x32, 0xef, 0xe1, 0xbe,
  0x92, 0x9e, 0x37, 0xbe, 0x99, 0x04, 0x1b, 0x3f, 0x55, 0xfb, 0xe2, 0xbc,
  0x2a, 0x29, 0x8a, 0x3d, 0x07, 0x81, 0x63, 0xbd, 0x7a, 0xd9, 0xd0, 0x3e,
  0xc0, 0xe7, 0x28, 0x3f, 0x4f, 0x89, 0xd7, 0x3e, 0xc0, 0xfd, 0xcf, 0x3e,
  0x72, 0xea, 0xb0, 0x3e, 0xc4, 0xd8, 0xc3, 0x3e, 0x15, 0xa4, 0x3d, 0x3f,
  0x34, 0xe8, 0x97, 0x3e, 0x77, 0x3b, 0x8c, 0x3e, 0x30, 0xe5, 0x47, 0x3e,
  0x34, 0x60, 0x07, 0x3f, 0x4a, 0x43, 0x23, 0xbf, 0xa0, 0x72, 0x32, 0xbe,
  0xad, 0x1d, 0x6d, 0x3d, 0x32, 0x5c, 0x01, 0xbe, 0x41, 0x44, 0x9d, 0x3e,
  0xc6, 0x7e, 0xe6, 0x3d, 0xca, 0xeb, 0x4f, 0x3e, 0x0c, 0x0a, 0x3b, 0xbe,
  0x81, 0xa9, 0xd2, 0x3b, 0xb5, 0x91, 0x19, 0xbe, 0x1a, 0xfa, 0xa1, 0x3e,
  0x38, 0x87, 0x05, 0x3d, 0x31, 0x05, 0x3b, 0xba, 0x68, 0x81, 0x10, 0x3e,
  0xae, 0x0a, 0xe4, 0xbe, 0x85, 0xd3, 0xf9, 0x3e, 0x6a, 0xdb, 0x85, 0x3e,
  0xcb, 0x10, 0x6d, 0x3b, 0x07, 0x01, 0x76, 0x3d, 0x04, 0x9c, 0xca, 0xbe,
  0x2a, 0x2a, 0xd3, 0x3e, 0x03, 0xd6, 0x2d, 0xbf, 0xbb, 0x29, 0xa0, 0x3e,
  0xb0, 0xbf, 0x1f, 0x3e, 0x7a, 0xe9, 0xaa, 0xbd, 0x58, 0x33, 0x06, 0xbd,
  0xec, 0x8f, 0x95, 0x3e, 0x9c, 0x72, 0xc9, 0x3d, 0xfa, 0x27, 0xf8, 0xbe,
  0x58, 0x01, 0xc4, 0xbf, 0xff, 0x9f, 0xd6, 0x3e, 0x9c, 0x77, 0xaf, 0xbe,
  0xb7, 0x57, 0x74, 0xbe, 0xa1, 0xc2, 0xbd, 0xbe, 0xd1, 0x9e, 0xd0, 0x3d,
  0x77, 0x8b, 0xc9, 0xbe, 0x75, 0x58, 0xb7, 0x3e, 0xcc, 0x08, 0x38, 0xbf,
  0xc7, 0xc4, 0xb6, 0x3e, 0xb4, 0x74, 0x8f, 0xbc, 0xa0, 0x88, 0x48, 0xbf,
  0x4b, 0xdc, 0x27, 0xbd, 0x9e, 0x6e, 0x95, 0x3e, 0x42, 0x31, 0xb5, 0xbe,
  0x44, 0xd5, 0x71, 0x3d, 0xfe, 0x1c, 0x78, 0xbe, 0x64, 0x89, 0xfd, 0x3d,
  0x31, 0x5d, 0x5e, 0xbf, 0x6b, 0x78, 0x66, 0xbd, 0x9f, 0xb3, 0x83, 0xbf,
  0x9d, 0xa2, 0x6e, 0xbf, 0x02, 0xf6, 0xa0, 0x3e, 0xae, 0x1f, 0x38, 0x3d,
  0x84, 0xc0, 0x85, 0xbe, 0x8c, 0x80, 0x99, 0xbb, 0x35, 0x63, 0xda, 0x3e,
  0x6d, 0x25, 0x38, 0x3e, 0xde, 0x14, 0xa2, 0x3e, 0xfb, 0x4b, 0x8f, 0x3e,
  0xf6, 0xc8, 0x28, 0xbe, 0x44, 0xeb, 0x00, 0x3d, 0xcf, 0x7b, 0xc7, 0x3d,
  0xda, 0x32, 0x21, 0x3e, 0x73, 0x30, 0x19, 0xbf, 0x96, 0x30, 0x9d, 0xbe,
  0xbd, 0xdd, 0x91, 0xbd, 0x18, 0xca, 0x19, 0x3e, 0x2d, 0x6e, 0x0b, 0xbf,
  0x10, 0xc4, 0x1f, 0xbd, 0x2b, 0x0e, 0x2b, 0xbf, 0xb9, 0x15, 0xf1, 0x3e,
  0x3e, 0x7d, 0x6a, 0xbf, 0x52, 0x28, 0x25, 0xbf, 0xaa, 0xf8, 0x16, 0x3f,
  0x13, 0x2c, 0x91, 0x3e, 0xe7, 0x1a, 0x91, 0x3e, 0x95, 0x43, 0xe6, 0x3d,
  0xf4, 0x9a, 0xab, 0x3e, 0x98, 0x3d, 0xc0, 0x3e, 0xf2, 0x0b, 0x09, 0x3e,
  0x2f, 0x5b, 0xae, 0x3e, 0x16, 0xab, 0xf0, 0x3d, 0xab, 0xc2, 0x7d, 0x3e,
  0xb5, 0x1d, 0x15, 0xbe, 0xbb, 0x94, 0x10, 0xbf, 0xec, 0x16, 0x2b, 0x3e,
  0x37, 0xb2, 0xd5, 0x3e, 0xe7, 0xee, 0xd2, 0x3e, 0x34, 0x10, 0x30, 0x3e,
  0xfe, 0xbd, 0xb0, 0xbe, 0x22, 0x90, 0xf9, 0x3e, 0xb2, 0xc3, 0x41, 0x3e,
  0x09, 0xce, 0x29, 0xbf, 0xc0, 0x2a, 0x45, 0x3d, 0xf3, 0x45, 0x4f, 0xbf,
  0x40, 0x9b, 0xe1, 0x3d, 0xcc, 0x72, 0x9e, 0xbe, 0xd5, 0xe4, 0x8a, 0x3e,
  0x35, 0xaa, 0xff, 0xbc, 0x8f, 0xea, 0x74, 0xbf, 0xf6, 0xdb, 0x65, 0xbe,
  0xf4, 0x3f, 0x8c, 0xbf, 0xf0, 0x5a, 0xb2, 0x3e, 0xf6, 0xe2, 0x7d, 0xbe,
  0x6c, 0xdc, 0xf7, 0x3d, 0xee, 0xe1, 0x3a, 0x3f, 0x92, 0xb9, 0x2f, 0xbf,
  0xb0, 0xb1, 0x52, 0x3e, 0x03, 0xd1, 0x88, 0xbe, 0x88, 0xfb, 0xc6, 0xbc,
  0xd1, 0x7a, 0x2a, 0x3d, 0x76, 0x74, 0x83, 0x3d, 0xc6, 0xb4, 0x81, 0x3e,
  0x0f, 0x28, 0x31, 0x3d, 0x23, 0x86, 0x88, 0x3e, 0x4b, 0xda, 0x14, 0x3f,
  0xad, 0x00, 0x5e, 0xbe, 0x63, 0xf6, 0xb3, 0x3e, 0xb1, 0x49, 0x81, 0xbe,
  0x3a, 0x3a, 0x15, 0xbf, 0x33, 0x0b, 0x2b, 0xbe, 0x86, 0xc4, 0xd7, 0xbe,
  0xae, 0xd5, 0x07, 0x3e, 0x9b, 0x9d, 0xf4, 0xbe, 0x1c, 0x27, 0x97, 0x3d,
  0xa8, 0xb3, 0xa0, 0x3e, 0xfa, 0xfc, 0x18, 0xbf, 0xfa, 0x7e, 0x45, 0x3d,
  0xfb, 0xc9, 0x0f, 0xbe, 0x15, 0x20, 0xa7, 0xbd, 0x2d, 0xd9, 0xf6, 0xbd,
  0x42, 0xc4, 0x40, 0xbe, 0x98, 0xf6, 0x27, 0xbf, 0xc2, 0x5a, 0xbf, 0xbe,
  0x4b, 0x8f, 0xe3, 0x3d, 0xe4, 0xfa, 0xff, 0xbd, 0x03, 0x83, 0x17, 0x3e,
  0x72, 0xde, 0xe8, 0x3e, 0xe2, 0x99, 0xe9, 0xbe, 0x52, 0x54, 0xb6, 0xbe,
  0x16, 0x91, 0x43, 0x3e, 0x24, 0x25, 0x98, 0x3c, 0xb1, 0xcf, 0x1b, 0x3f,
  0xde, 0xd8, 0x85, 0x3d, 0x86, 0xdd, 0x38, 0xbf, 0xf5, 0x6b, 0xdf, 0x3d,
  0x61, 0x49, 0xe8, 0x3d, 0x01, 0x1b, 0x6d, 0x3e, 0x7d, 0x3d, 0x01, 0x3f,
  0x95, 0xcb, 0x00, 0xbf, 0x27, 0xdd, 0x7a, 0xbf, 0x3a, 0xb4, 0x81, 0x3e,
  0x89, 0xf1, 0x79, 0xbe, 0x59, 0x29, 0x13, 0xbe, 0x2b, 0x38, 0x41, 0xbf,
  0xb6, 0xd6, 0xb4, 0xbd, 0x62, 0xf3, 0x40, 0x3e, 0x81, 0x88, 0xb6, 0x3e,
  0x1e, 0xd6, 0x29, 0xbd, 0x32, 0x16, 0x89, 0xbe, 0x0f, 0xa4, 0x07, 0xbf,
  0x62, 0xb9, 0xab, 0xbe, 0xa7, 0x59, 0xf0, 0x3e, 0x05, 0xbe, 0xb9, 0xbe,
  0x0f, 0xba, 0xc0, 0x3e, 0xf9, 0xe5, 0x21, 0x3f, 0x7e, 0xaa, 0x40, 0xbf,
  0x3a, 0x62, 0x9b, 0xbe, 0x83, 0x76, 0x85, 0xbd, 0x62, 0x8d, 0x94, 0x3e,
  0x16, 0xfa, 0xb5, 0x3e, 0x29, 0x36, 0x34, 0xbf, 0xc3, 0xad, 0x9e, 0x3f,
  0x5c, 0x2b, 0x9e, 0xbe, 0x55, 0x81, 0x4c, 0xbe, 0x78, 0xb1, 0x2d, 0x3e,
  0x62, 0xb0, 0x96, 0x3e, 0xbf, 0x29, 0x08, 0x3f, 0xc1, 0xa1, 0xb3, 0x3f,
  0xe1, 0x11, 0xe9, 0xbb, 0x45, 0xcb, 0x56, 0x3e, 0x58, 0xd5, 0x64, 0xbf,
  0xdd, 0x98, 0x44, 0xbe, 0x2d, 0x61, 0x32, 0x3e, 0x60, 0xc0, 0x73, 0xbe,
  0x5d, 0xe6, 0xf0, 0xbe, 0x9d, 0x13, 0x9f, 0x3e, 0x23, 0xce, 0xb6, 0x3c,
  0xc0, 0x0f, 0x07, 0xbe, 0x09, 0x7c, 0x9e, 0x3e, 0x2d, 0x4a, 0xcb, 0xbd,
  0xe2, 0xda, 0x67, 0xbb, 0xae, 0x30, 0xe6, 0x3e, 0xa5, 0x1d, 0xfe, 0x3d,
  0x23, 0x4b, 0x43, 0xbe, 0xba, 0xce, 0x93, 0xbd, 0x9a, 0x58, 0x8d, 0x3e,
  0x6f, 0x8c, 0xb2, 0xbc, 0x01, 0xa3, 0xd2, 0xbe, 0x6c, 0x2f, 0x12, 0x3e,
  0xc8, 0x16, 0xa1, 0x3f, 0x0d, 0x40, 0x3d, 0x3e, 0x10, 0xfb, 0xd5, 0x3e,
  0x97, 0xdf, 0x89, 0x3e, 0x63, 0x55, 0x16, 0x3f, 0x77, 0x90, 0x38, 0x3f,
  0x8a, 0x00, 0x0b, 0x3f, 0x08, 0x84, 0x32, 0xbf, 0x57, 0xf0, 0xc1, 0xbd,
  0x7b, 0x45, 0xc6, 0xbc, 0xa2, 0x9e, 0x81, 0x3e, 0x75, 0x92, 0x02, 0xbe,
  0x51, 0x30, 0xa6, 0x3e, 0xa5, 0x53, 0x9c, 0xbe, 0x45, 0xc3, 0x31, 0x3c,
  0xfa, 0xbb, 0x28, 0x3d, 0xaf, 0x36, 0x4d, 0x3e, 0x08, 0xb1, 0xb5, 0x3e,
  0xac, 0x79, 0x20, 0xbc, 0xc5, 0x02, 0xa4, 0xbe, 0x4e, 0xaf, 0x33, 0x3f,
  0x8c, 0xeb, 0x09, 0xbe, 0x5e, 0x0b, 0xd1, 0xbd, 0xea, 0x27, 0xdc, 0x3e,
  0x01, 0x8a, 0x49, 0x3e, 0x9a, 0x87, 0xb2, 0x3d, 0xfd, 0x1f, 0x7b, 0x3e,
  0xdf, 0x1d, 0x93, 0x3e, 0x6f, 0x26, 0x53, 0xbc, 0x25, 0x58, 0x6f, 0xbe,
  0x74, 0x9b, 0x80, 0xbe, 0x94, 0xc9, 0xe5, 0xbe, 0xa8, 0xbc, 0x06, 0x3f,
  0x2b, 0x5c, 0xd4, 0xbe, 0xb1, 0xb6, 0x89, 0x3e, 0x9b, 0xac, 0x82, 0xbd,
  0x63, 0xd3, 0x95, 0xbe, 0x45, 0xa4, 0xbb, 0x3e, 0x57, 0x52, 0x1e, 0x3f,
  0x60, 0x25, 0xe7, 0x3d, 0xce, 0xee, 0x83, 0xbe, 0xae, 0x4d, 0x40, 0xbe,
  0x50, 0x60, 0x9a, 0xbe, 0x31, 0xe7, 0x29, 0xbf, 0x57, 0x37, 0x19, 0xbf,
  0x5f, 0x20, 0x79, 0xbf, 0x88, 0x98, 0xa3, 0x3e, 0x91, 0x59, 0xbd, 0xbd,
  0xc9, 0x4a, 0xdd, 0x3e, 0x22, 0x01, 0x2c, 0x3e, 0xbf, 0xfb, 0x1a, 0xbe,
  0x9f, 0x0d, 0xe1, 0x3d, 0x67, 0x2e, 0x6f, 0x3e, 0x40, 0xa1, 0xb4, 0xbe,
  0x6f, 0x45, 0x4e, 0xbd, 0x39, 0x8f, 0xb3, 0x3d, 0x62, 0x32, 0x2a, 0xbe,
  0xb1, 0x25, 0xa3, 0x3e, 0x09, 0x0a, 0x68, 0xbe, 0x2c, 0x70, 0x93, 0x3e,
  0xa3, 0xde, 0x33, 0x3e, 0x0c, 0xa4, 0x3a, 0xbd, 0xfe, 0xf3, 0x9c, 0xbe,
  0xd7, 0x38, 0x15, 0x3f, 0x3f, 0x89, 0xeb, 0x3e, 0x2f, 0x38, 0x68, 0x3e,
  0xd6, 0x72, 0x8b, 0x3e, 0x89, 0x00, 0xeb, 0xbe, 0x68, 0x72, 0xb0, 0xbe,
  0x20, 0x1a, 0x6b, 0x3e, 0x5d, 0x3a, 0xf0, 0x3e, 0x6c, 0x21, 0xc2, 0xbe,
  0x1b, 0xed, 0x88, 0x3e, 0x38, 0xbc, 0x84, 0x3e, 0xad, 0x37, 0x22, 0x3e,
  0x07, 0x93, 0x54, 0x3e, 0x84, 0x21, 0x5a, 0xbe, 0xe9, 0xd2, 0xe8, 0x3d,
  0xa3, 0xee, 0x87, 0x3e, 0x6e, 0x05, 0x10, 0x3d, 0xbd, 0xc4, 0xcc, 0x3e,
  0xec, 0xbf, 0x36, 0x3d, 0x68, 0xc1, 0x20, 0xbf, 0x70, 0xdc, 0x30, 0x3f,
  0x76, 0x07, 0xcf, 0x3d, 0xed, 0xd9, 0x9b, 0xbc, 0x84, 0x9a, 0x2c, 0x3e,
  0x2b, 0xfd, 0x39, 0x3f, 0x4b, 0x6a, 0xd8, 0xbe, 0xcc, 0x4d, 0x12, 0xbf,
  0x61, 0xab, 0x64, 0xbf, 0x76, 0xaf, 0x08, 0xbf, 0x91, 0xc1, 0x3b, 0x3e,
  0x76, 0x7b, 0xc8, 0x3e, 0x00, 0xe7, 0xdc, 0x3c, 0xf9, 0x9c, 0x73, 0xbf,
  0x64, 0xb2, 0xa5, 0x3d, 0xae, 0xe7, 0xc4, 0xbe, 0xf4, 0xe6, 0x04, 0x3f,
  0x09, 0xbb, 0xc9, 0x3e, 0x7e, 0x1e, 0x42, 0x3d, 0xca, 0x5a, 0x0e, 0x3f,
  0xc4, 0xe7, 0x09, 0x3d, 0x68, 0x62, 0x14, 0xbf, 0x51, 0xa1, 0xad, 0x3e,
  0xfd, 0x79, 0xbe, 0xbe, 0xcc, 0x33, 0x89, 0x3e, 0x5c, 0x4f, 0x79, 0x3d,
  0x75, 0x5a, 0x2b, 0x3f, 0x10, 0xdb, 0x7a, 0xbc, 0x0a, 0x53, 0x7b, 0xbd,
  0x3a, 0x65, 0x0f, 0x3d, 0x32, 0x30, 0xbe, 0xbe, 0x6d, 0x49, 0x11, 0xbd,
  0x07, 0xe5, 0x2d, 0xbf, 0xf6, 0x9c, 0x94, 0xbd, 0x51, 0xf3, 0x00, 0x3e,
  0xb1, 0x26, 0x19, 0xbf, 0xf7, 0x50, 0xb4, 0xbe, 0xd2, 0x97, 0x96, 0x3e,
  0xd4, 0x8e, 0x30, 0x3e, 0xea, 0xf9, 0xed, 0xbe, 0x3d, 0x96, 0x59, 0xbc,
  0x53, 0xad, 0x89, 0x3c, 0x75, 0x13, 0x0c, 0x3f, 0xc6, 0x85, 0x98, 0xbe,
  0x90, 0x93, 0x9b, 0xbe, 0x7a, 0x00, 0x45, 0xbf, 0x61, 0x42, 0x72, 0xbf,
  0x4e, 0x53, 0x6b, 0x3e, 0x9b, 0x0e, 0x05, 0x3e, 0x2b, 0x33, 0xe9, 0xbe,
  0x89, 0x4b, 0x7f, 0x3e, 0x8e, 0xd1, 0xc0, 0xbe, 0xe2, 0xc2, 0x7c, 0xbd,
  0xf3, 0xf4, 0x1f, 0x3f, 0x4a, 0xea, 0xb0, 0x3e, 0x10, 0x1d, 0x4d, 0xbe,
  0x6f, 0x0c, 0xc2, 0x3e, 0xb6, 0xc6, 0x1c, 0x3d, 0x0e, 0x5e, 0x97, 0xbd,
  0xc1, 0xcb, 0x4d, 0x3d, 0xb8, 0xce, 0xf6, 0xbe, 0x79, 0x49, 0x1c, 0x3f,
  0x68, 0x0c, 0x6e, 0x3e, 0x90, 0x54, 0x1f, 0xbf, 0x35, 0x68, 0xfb, 0xbb,
  0xd1, 0x9f, 0x58, 0xbe, 0xcf, 0x3a, 0x0a, 0x3f, 0x34, 0xbd, 0x84, 0xbd,
  0x5e, 0xef, 0xc6, 0xbd, 0xb7, 0x10, 0x40, 0xbe, 0x07, 0x83, 0x8d, 0xbe,
  0xd7, 0x91, 0x97, 0x3e, 0xb0, 0xd6, 0x92, 0xbc, 0x82, 0xc3, 0x3a, 0x3e,
  0xb2, 0x34, 0x73, 0xbb, 0x32, 0xca, 0xd3, 0xbb, 0x6a, 0x2b, 0x4e, 0xbf,
  0x9b, 0xbb, 0xd7, 0xbe, 0xfc, 0x60, 0x8a, 0x3e, 0x2b, 0xc9, 0xc2, 0x3d,
  0x46, 0xa6, 0x6f, 0xbd, 0x0e, 0x6b, 0x8f, 0x3d, 0x96, 0xed, 0x52, 0x3e,
  0x96, 0x06, 0x66, 0x3f, 0xc2, 0x4f, 0x02, 0x3e, 0x3c, 0x4a, 0xd4, 0x3e,
  0x0e, 0x5b, 0x93, 0xbe, 0x39, 0x3d, 0xc7, 0x3e, 0x4a, 0x38, 0x56, 0x3e,
  0x58, 0xb7, 0x75, 0x3e, 0x1b, 0xa8, 0x45, 0xbe, 0xae, 0x93, 0x97, 0xbe,
  0xa5, 0x19, 0xce, 0x3e, 0x28, 0xc7, 0x86, 0xbe, 0x8e, 0x24, 0x54, 0x3e,
  0x34, 0x6a, 0x4d, 0xbd, 0x3b, 0x3d, 0xb3, 0x3e, 0x2a, 0x29, 0x0a, 0xbf,
  0x91, 0x98, 0xfa, 0xbe, 0x4a, 0xa4, 0x4f, 0x3e, 0x29, 0x49, 0x2d, 0x3e,
  0x71, 0xf2, 0xfb, 0xbe, 0x41, 0x6f, 0x29, 0xbe, 0xd1, 0x7d, 0x36, 0x3d,
  0x86, 0xe6, 0xba, 0xbe, 0x76, 0xea, 0x8c, 0xbe, 0x8c, 0x1f, 0x10, 0x3f,
  0x5c, 0x42, 0xbf, 0x3e, 0x84, 0x1e, 0x3a, 0xbe, 0xd9, 0xc5, 0x00, 0x3f,
  0x3b, 0x9b, 0x38, 0x3e, 0x6a, 0xe1, 0xc1, 0xbe, 0xa4, 0x0d, 0x0d, 0x3e,
  0xe2, 0xfb, 0xf5, 0xbe, 0xe6, 0xbe, 0x90, 0x3e, 0x45, 0xf3, 0xf5, 0xbe,
  0x22, 0x8a, 0x25, 0xbe, 0x7f, 0xee, 0xd2, 0x3e, 0xe3, 0xb6, 0x38, 0xbe,
  0x26, 0x4b, 0xa9, 0x3e, 0xfc, 0xf4, 0xcf, 0x3e, 0x72, 0xca, 0x92, 0xbe,
  0x9a, 0x52, 0x66, 0x3b, 0x44, 0x99, 0x83, 0x3e, 0x8d, 0x16, 0x2d, 0x3e,
  0xe5, 0x43, 0x15, 0xbf, 0xd9, 0xcf, 0x0a, 0x3f, 0xf6, 0x85, 0xb5, 0x3e,
  0x92, 0xcf, 0xef, 0x3e, 0x63, 0x61, 0xb1, 0x3e, 0x97, 0xa5, 0x5d, 0xbf,
  0xe6, 0x0a, 0x29, 0x3f, 0x80, 0xcc, 0xd6, 0x3d, 0x24, 0xcb, 0x63, 0xbe,
  0x1a, 0xc6, 0xbc, 0xbe, 0xb8, 0xfd, 0x1d, 0xbf, 0x7e, 0x50, 0x82, 0xbf,
  0xc2, 0xdd, 0x80, 0xbe, 0x84, 0x72, 0x57, 0xbe, 0x77, 0xc6, 0x88, 0x3f,
  0x8c, 0x4e, 0x16, 0x3e, 0x3b, 0x00, 0xd6, 0xbe, 0x96, 0x73, 0xa3, 0x3e,
  0x11, 0x20, 0xef, 0x3e, 0x94, 0xec, 0x95, 0xbe, 0xbd, 0x83, 0x80, 0x3d,
  0x1c, 0xc0, 0x02, 0x3f, 0xe8, 0x67, 0xf0, 0xbe, 0x77, 0x59, 0x68, 0x3e,
  0xac, 0x78, 0x84, 0xbd, 0x0e, 0x08, 0x18, 0xbf, 0x91, 0xaf, 0xb2, 0xbc,
  0x67, 0xe9, 0xc3, 0x3e, 0x59, 0x7b, 0x34, 0x3e, 0x7d, 0x08, 0x42, 0x3c,
  0xd2, 0x0c, 0xe3, 0xbd, 0xf3, 0x2f, 0x96, 0x3e, 0x74, 0x78, 0xe1, 0xbd,
  0x96, 0x35, 0x7f, 0xbf, 0x94, 0xb9, 0x70, 0x3e, 0x48, 0xa5, 0x3e, 0xbe,
  0xde, 0xaa, 0x97, 0xbe, 0x53, 0x9e, 0x8c, 0xbe, 0xb3, 0x32, 0x14, 0xbf,
  0x3f, 0x51, 0xc0, 0xbe, 0x36, 0x27, 0x36, 0x3f, 0x8b, 0x87, 0xc0, 0x3e,
  0x32, 0x84, 0x12, 0x3e, 0xe8, 0xc8, 0x0d, 0x3e, 0xd5, 0x77, 0x9e, 0xbd,
  0x3a, 0x22, 0xd3, 0xbe, 0x77, 0x3e, 0xb2, 0x3e, 0x25, 0x39, 0x1f, 0xbe,
  0x5f, 0x4b, 0xe8, 0x3e, 0x35, 0x82, 0x8c, 0x3d, 0x8b, 0x24, 0xcb, 0xbd,
  0x98, 0x29, 0xe4, 0x3d, 0xd8, 0xe3, 0xc0, 0x3e, 0xd3, 0xfa, 0x74, 0xbc,
  0xc8, 0x68, 0x92, 0xbd, 0x8a, 0x68, 0x99, 0xbe, 0x3f, 0xbe, 0x3f, 0x3e,
  0xe9, 0x18, 0xf4, 0x3d, 0x1e, 0xb5, 0x46, 0xbf, 0x13, 0x8d, 0xb8, 0xbe,
  0x5f, 0xa1, 0x34, 0xbe, 0x94, 0xef, 0xc4, 0x3e, 0xb1, 0xa4, 0xaf, 0x3e,
  0x54, 0xcf, 0x9e, 0x3d, 0xeb, 0x46, 0xd9, 0x3e, 0x9b, 0x41, 0x1a, 0x3e,
  0x8d, 0x95, 0x31, 0xbf, 0x0d, 0x7e, 0xfe, 0xbd, 0x1a, 0x51, 0x03, 0xbf,
  0xdf, 0xd6, 0x67, 0xbe, 0xe8, 0x39, 0xb6, 0x3d, 0xc7, 0x7f, 0xa1, 0x3e,
  0x00, 0xe2, 0x6a, 0xbf, 0x28, 0xcd, 0xc5, 0x3e, 0x33, 0xae, 0xc0, 0xbe,
  0x3b, 0x0d, 0x59, 0xbe, 0xcb, 0x20, 0x51, 0x3f, 0xf3, 0x0f, 0xca, 0xbe,
  0xae, 0xde, 0xd0, 0xbe, 0x68, 0xdb, 0x85, 0xbd, 0x2e, 0xea, 0xf4, 0x3d,
  0x76, 0x10, 0x2b, 0xbd, 0xf7, 0x71, 0x7c, 0x3e, 0xa2, 0xfb, 0x47, 0xbe,
  0x17, 0x03, 0x9d, 0xbd, 0xb8, 0xea, 0x1c, 0x3f, 0x41, 0xc5, 0xc8, 0xbd,
  0x0a, 0x9f, 0x55, 0xbe, 0xa5, 0x94, 0x8e, 0x3d, 0x45, 0xbf, 0xb5, 0xbd,
  0x65, 0x19, 0xd7, 0x3e, 0x2a, 0x74, 0x9f, 0x3e, 0x10, 0xbc, 0xf5, 0xbd,
  0x01, 0x50, 0x13, 0x3f, 0x54, 0x48, 0xac, 0x3e, 0x72, 0x77, 0x64, 0x3c,
  0xc3, 0xcd, 0x14, 0x3e, 0x51, 0x3f, 0x26, 0x3f, 0x70, 0xee, 0xb2, 0x3e,
  0x8d, 0x37, 0x26, 0xbe, 0x16, 0x1c, 0xcc, 0xbe, 0x4a, 0x88, 0x86, 0x3c,
  0x96, 0xe2, 0x5e, 0x3f, 0xee, 0x51, 0x01, 0x3e, 0xad, 0x7e, 0xf1, 0x3d,
  0xf6, 0x12, 0xb6, 0x3e, 0x78, 0xd0, 0x3e, 0xbd, 0x2b, 0x6e, 0xc0, 0x3e,
  0xdb, 0x54, 0x02, 0x3e, 0x48, 0x2c, 0x1e, 0xbf, 0x46, 0x26, 0x11, 0x3f,
  0xb7, 0x99, 0x04, 0xbe, 0xd0, 0xe5, 0x33, 0x3e, 0xb0, 0x85, 0xcb, 0x3f,
  0xb5, 0x68, 0x45, 0xbd, 0x3c, 0xe6, 0xf2, 0x3c, 0x23, 0xf0, 0x2c, 0xbd,
  0x62, 0xcf, 0x22, 0xbe, 0xb8, 0x52, 0x1b, 0x3e, 0x75, 0x7c, 0x2e, 0x3e,
  0xcd, 0x51, 0x68, 0x3f, 0xda, 0x7f, 0xa5, 0xbe, 0x6e, 0xc1, 0x9a, 0x3e,
  0x6f, 0xc8, 0xef, 0xbd, 0xe2, 0x8e, 0xc1, 0xbd, 0x1a, 0x08, 0x02, 0xbf,
  0x40, 0xbc, 0xb4, 0x3e, 0x2c, 0xe0, 0x9c, 0xbe, 0x45, 0x8c, 0x82, 0xbf,
  0x24, 0xc0, 0x8f, 0xbe, 0xf4, 0x06, 0x0f, 0xbf, 0x22, 0x64, 0x06, 0xbe,
  0xb4, 0x57, 0xc2, 0x3e, 0xc2, 0xab, 0x62, 0x3e, 0x4e, 0xbe, 0x0c, 0x3f,
  0xbe, 0x61, 0xef, 0xbd, 0x8f, 0xa1, 0x9f, 0xbe, 0x58, 0x0b, 0x9d, 0xbd,
  0xb0, 0xce, 0x39, 0xbc, 0x89, 0xe0, 0x1a, 0x3e, 0xcc, 0xeb, 0x22, 0xbe,
  0xcd, 0xdc, 0xdc, 0x3e, 0xcf, 0x57, 0x1e, 0xbe, 0x46, 0x1a, 0xf9, 0x3c,
  0x9c, 0xee, 0x8c, 0xbe, 0xb9, 0xb8, 0x3f, 0xbf, 0xbf, 0x02, 0x85, 0x3e,
  0xc0, 0x61, 0xec, 0x3c, 0x61, 0x5f, 0xaa, 0x3b, 0xf1, 0x64, 0x17, 0x3d,
  0xaa, 0xb3, 0x1a, 0xbf, 0x0c, 0x72, 0x8f, 0x3e, 0x21, 0xd4, 0x77, 0xbb,
  0x74, 0xe0, 0x09, 0xbf, 0x4b, 0x07, 0x88, 0x3e, 0x9f, 0xda, 0x78, 0xbd,
  0x9d, 0xca, 0x46, 0xbf, 0x45, 0x6d, 0x0b, 0x3f, 0x73, 0x9d, 0x80, 0xbe,
  0x40, 0x8a, 0x14, 0xbf, 0x45, 0xc8, 0x8f, 0xbd, 0x75, 0x04, 0x14, 0xbe,
  0xd1, 0x37, 0x86, 0x3e, 0x6c, 0x70, 0x80, 0x3d, 0x40, 0x50, 0xa1, 0x3b,
  0x4a, 0xce, 0x4d, 0x3e, 0x38, 0x85, 0x8b, 0xbd, 0x02, 0x19, 0x8b, 0xbe,
  0x6a, 0x34, 0x14, 0x3f, 0x3f, 0xdf, 0x5d, 0x3e, 0x20, 0x6a, 0x41, 0x3d,
  0xd5, 0x02, 0x16, 0x3e, 0xf9, 0x4e, 0xcf, 0x3d, 0x34, 0xf3, 0x40, 0x3f,
  0x3b, 0x12, 0x09, 0xbe, 0xf9, 0x41, 0x04, 0xbf, 0x95, 0x05, 0x97, 0x3e,
  0xfe, 0x4b, 0x63, 0x3e, 0x2f, 0x28, 0xbb, 0xbe, 0xaf, 0x94, 0x7c, 0xbd,
  0x44, 0x29, 0x35, 0x3f, 0x04, 0x79, 0xc5, 0x3e, 0xd2, 0x77, 0xa2, 0x3e,
  0x60, 0x63, 0xac, 0x3e, 0xf0, 0x70, 0xe5, 0x3e, 0x9a, 0xdb, 0xbc, 0xbe,
  0xfa, 0x6b, 0x85, 0x3f, 0xfd, 0x23, 0x96, 0x3e, 0xed, 0x3f, 0x0d, 0x3e,
  0x58, 0x65, 0xc2, 0xbd, 0x5c, 0x73, 0xeb, 0xbe, 0x9f, 0x3a, 0x49, 0xbf,
  0x94, 0x46, 0x0d, 0x3f, 0xa1, 0x6c, 0x1c, 0xbe, 0xb2, 0xb1, 0x9e, 0x3f,
  0xc4, 0xf4, 0x95, 0x3e, 0x61, 0x6c, 0xdc, 0xbd, 0xef, 0xe1, 0x3e, 0x3f,
  0x93, 0x07, 0x44, 0x3f, 0xa4, 0x8b, 0x1a, 0x3c, 0x91, 0x46, 0x2e, 0xbe,
  0xfb, 0xdc, 0x52, 0x3e, 0x95, 0x8c, 0xb7, 0xbe, 0x5e, 0x57, 0x67, 0x3e,
  0x66, 0xf5, 0xbe, 0x3e, 0xa8, 0x9c, 0xff, 0xbe, 0x0a, 0xcc, 0x86, 0xbc,
  0x7e, 0x99, 0xc8, 0x3e, 0x10, 0xbf, 0x65, 0x3e, 0x40, 0x7b, 0xf1, 0x3e,
  0x2d, 0xf5, 0x65, 0xbe, 0xad, 0xf5, 0x8c, 0x3e, 0xd8, 0x01, 0x6a, 0x3e,
  0x76, 0x69, 0xb8, 0xbe, 0x8a, 0xc4, 0x9a, 0xbc, 0x40, 0x5f, 0xd6, 0xbd,
  0x96, 0xc5, 0xcd, 0xbe, 0xe3, 0x0c, 0x7a, 0xbe, 0xe0, 0x4c, 0x7c, 0xbe,
  0xb5, 0xd7, 0x83, 0xbe, 0x2f, 0xb1, 0x31, 0x3f, 0x5b, 0x0c, 0xa8, 0x3e,
  0x0a, 0x58, 0x09, 0xbf, 0xa0, 0xdc, 0xcc, 0x3e, 0xe0, 0xed, 0xa0, 0x3e,
  0x7f, 0xf9, 0x30, 0xbe, 0x9a, 0x66, 0x74, 0xb9, 0x52, 0x53, 0xe4, 0x3d,
  0xb8, 0xdd, 0x2e, 0x3e, 0xa2, 0xe6, 0x23, 0x3f, 0x6c, 0x2e, 0x8f, 0xbe,
  0x4a, 0x09, 0xce, 0x3d, 0xbb, 0xd8, 0xea, 0x3e, 0xd4, 0x27, 0x52, 0xbf,
  0xb6, 0x37, 0x16, 0x3e, 0xbe, 0xa6, 0x17, 0x3f, 0x16, 0x36, 0x4a, 0xbd,
  0xc9, 0xf3, 0xe2, 0x3e, 0xc1, 0xce, 0x0f, 0xbf, 0x5f, 0x01, 0xcf, 0xbd,
  0x8e, 0x45, 0xfe, 0xbe, 0x8f, 0xae, 0x8c, 0x3f, 0x95, 0x24, 0xe7, 0xbd,
  0x64, 0xec, 0xaa, 0xbb, 0xcd, 0x3f, 0x05, 0x3f, 0x8a, 0x47, 0x26, 0xbe,
  0xcd, 0x60, 0x9b, 0x3e, 0xe2, 0x08, 0xd7, 0xbe, 0xc9, 0x31, 0x1f, 0xbe,
  0x39, 0x35, 0xff, 0xbc, 0xd3, 0x14, 0xc4, 0xbd, 0x85, 0x1b, 0x70, 0xbf,
  0x83, 0xd9, 0xa8, 0xbe, 0x72, 0x58, 0x8f, 0x3d, 0x5c, 0x3c, 0xa5, 0x3e,
  0x5c, 0xa1, 0xd6, 0xbd, 0x48, 0xa9, 0x13, 0xbe, 0x95, 0x35, 0x1b, 0x3f,
  0xd7, 0x00, 0xbe, 0x3e, 0x1e, 0xb4, 0x18, 0xbf, 0xd1, 0xcc, 0xc9, 0x3d,
  0xef, 0x1c, 0xa3, 0x3e, 0x6c, 0xf7, 0x0a, 0x3f, 0xf4, 0x7f, 0xbc, 0xbe,
  0xf3, 0x47, 0xc4, 0x3e, 0xc1, 0x51, 0x5d, 0xbe, 0x86, 0x3a, 0xc1, 0xbe,
  0x5a, 0x1d, 0x0f, 0x3e, 0x47, 0x49, 0x6c, 0xbe, 0x9e, 0x28, 0xb9, 0x3e,
  0x83, 0x99, 0xbb, 0xbe, 0xcf, 0x15, 0x82, 0xbd, 0xc6, 0x50, 0x96, 0x3e,
  0xb2, 0x34, 0x31, 0xbf, 0x65, 0x27, 0x66, 0x3d, 0xb6, 0x6c, 0x17, 0x3e,
  0x7b, 0x77, 0x5b, 0xbd, 0x1f, 0xb3, 0x0d, 0x3f, 0x76, 0x82, 0xe4, 0xbe,
  0x06, 0x88, 0x80, 0xbe, 0xd9, 0xb0, 0x13, 0xbe, 0x9f, 0x7c, 0x5b, 0x3e,
  0x36, 0xa9, 0x1d, 0x3f, 0xc4, 0x41, 0x29, 0x3e, 0x74, 0x6a, 0x6f, 0x3c,
  0xd9, 0x86, 0x6d, 0x3f, 0x68, 0x50, 0x10, 0xbe, 0x6b, 0x7d, 0xa1, 0x3d,
  0x1f, 0x6b, 0xb4, 0x3e, 0x3f, 0x56, 0xcf, 0x3e, 0x79, 0x9e, 0x97, 0xbe,
  0x31, 0x15, 0x92, 0xbe, 0x6e, 0xd3, 0x02, 0x3f, 0x01, 0x0a, 0x53, 0xbd,
  0x52, 0x98, 0xda, 0x3e, 0xd8, 0x5c, 0x4c, 0xbe, 0x29, 0x92, 0xe0, 0x3e,
  0x1c, 0x16, 0xea, 0xbe, 0x62, 0x5d, 0x40, 0xbf, 0xc6, 0xf7, 0xa0, 0xbd,
  0xe5, 0xe0, 0x1f, 0xbf, 0x65, 0x85, 0x2e, 0x3f, 0xcc, 0x30, 0x7f, 0x3e,
  0xff, 0x25, 0xc9, 0xbc, 0xc2, 0x0e, 0x84, 0xbd, 0x3a, 0xdc, 0xaf, 0xbc,
  0xd3, 0x15, 0x0c, 0x3d, 0xdb, 0x2f, 0xeb, 0xbe, 0xce, 0x0b, 0x08, 0xbf,
  0x36, 0x10, 0x94, 0xbc, 0x9c, 0xc3, 0x1c, 0x3e, 0x3d, 0x1e, 0xc1, 0x3e,
  0xfa, 0x98, 0x01, 0xbf, 0x34, 0x9a, 0x73, 0x3e, 0x87, 0xaa, 0xb1, 0x3d,
  0xc5, 0x6b, 0x38, 0xbe, 0x96, 0xec, 0xb8, 0x3c, 0x10, 0x89, 0x60, 0xbe,
  0x04, 0xd7, 0x06, 0xbe, 0x7d, 0x07, 0x79, 0xbe, 0x98, 0xb7, 0x7f, 0x3e,
  0x88, 0x18, 0x69, 0x3e, 0x1c, 0x03, 0x0c, 0x3f, 0xcf, 0x9b, 0xaf, 0xbe,
  0x86, 0x0d, 0x1c, 0x3e, 0x02, 0x9e, 0x02, 0x3e, 0x7d, 0x8f, 0x81, 0xbe,
  0x90, 0xc6, 0x81, 0x3e, 0x47, 0x1d, 0xc6, 0xbd, 0xd2, 0xb1, 0x32, 0xbd,
  0x2b, 0x7e, 0x31, 0x3c, 0x0b, 0x00, 0xdc, 0xbd, 0x1c, 0xbc, 0x35, 0x3c,
  0x1c, 0x6f, 0x9a, 0x3c, 0xf4, 0xec, 0xbc, 0x3e, 0xe8, 0x7c, 0xa7, 0x3d,
  0x8e, 0x64, 0x81, 0x3e, 0x05, 0xef, 0x82, 0x3e, 0xb7, 0x26, 0x44, 0xbe,
  0x5d, 0x45, 0xc2, 0xbe, 0xab, 0xe1, 0x0e, 0xbf, 0x10, 0xf8, 0x81, 0x3e,
  0x26, 0xcb, 0x9f, 0x3f, 0x97, 0x0f, 0x48, 0x3d, 0x42, 0xc2, 0x25, 0x3e,
  0xbb, 0x4b, 0xe0, 0x3e, 0xb3, 0x3b, 0x21, 0xbe, 0xad, 0x41, 0x38, 0x3d,
  0xf5, 0xbe, 0x30, 0x3e, 0x15, 0x1e, 0xc1, 0x3d, 0x75, 0xa7, 0xab, 0x3e,
  0xa1, 0xcc, 0x6a, 0xbe, 0x43, 0x26, 0x12, 0x3e, 0x41, 0x47, 0x85, 0x3f,
  0x3c, 0xb8, 0x1f, 0x3e, 0x18, 0x75, 0xa0, 0xbe, 0x23, 0xc2, 0x2e, 0x3e,
  0x76, 0x4e, 0xef, 0xbd, 0xdc, 0xe5, 0x84, 0xbe, 0xb0, 0xce, 0x48, 0x3e,
  0x78, 0xa5, 0x2c, 0x3f, 0xe0, 0x7a, 0x21, 0xbe, 0xa2, 0x8a, 0xc9, 0x3e,
  0x9f, 0x0a, 0xbd, 0x3e, 0xae, 0x3b, 0x3a, 0xbd, 0x00, 0x00, 0x00, 0x00,
  0x26, 0xf4, 0xff, 0xff, 0x04, 0x00, 0x00, 0x00, 0x40, 0x0b, 0x00, 0x00,
  0xdc, 0xad, 0x7a, 0x3c, 0x4c, 0xa8, 0x83, 0xbf, 0xdd, 0xcc, 0x29, 0x3e,
  0xc6, 0xaf, 0x1a, 0xbb, 0x98, 0xb1, 0xb1, 0x3f, 0xdf, 0xe7, 0xfb, 0xbe,
  0x84, 0x7f, 0x9e, 0x3b, 0x1d, 0x22, 0x1b, 0x3e, 0x51, 0x7f, 0x48, 0xbf,
  0xb0, 0xaf, 0x98, 0x3c, 0xfc, 0x6e, 0x53, 0x3e, 0xa7, 0x3f, 0x00, 0xbf,
  0x4e, 0x5e, 0x4c, 0xbc, 0x8c, 0x94, 0xa5, 0x3f, 0x57, 0x15, 0xbd, 0xbc,
  0x29, 0x6f, 0xc4, 0xba, 0x4d, 0x1d, 0xd6, 0xbe, 0x21, 0xbe, 0x71, 0x3e,
  0xec, 0xc5, 0x78, 0xbc, 0x43, 0xe1, 0x83, 0xbe, 0xb6, 0x06, 0xa1, 0x3e,
  0x48, 0x06, 0x9f, 0xbc, 0xe8, 0x4f, 0xc7, 0xbd, 0xca, 0xc8, 0xa9, 0x3f,
  0x01, 0xc4, 0x8a, 0xbe, 0x91, 0x89, 0xb9, 0x3d, 0xa5, 0xbf, 0x94, 0xbe,
  0xed, 0xcf, 0xc6, 0xbd, 0x66, 0xe6, 0xf1, 0x3d, 0x2c, 0xfd, 0xd1, 0x3e,
  0x01, 0x97, 0x9f, 0xbd, 0x37, 0xcc, 0xc4, 0xbe, 0x44, 0x01, 0x33, 0xbe,
  0x09, 0x06, 0x84, 0x3e, 0x1e, 0xc7, 0xc9, 0x3e, 0xdf, 0x76, 0x90, 0x3e,
  0x4a, 0x76, 0x13, 0xbf, 0xf2, 0x58, 0xd3, 0xbd, 0xf6, 0x4f, 0x30, 0x3e,
  0x84, 0x48, 0xea, 0x3e, 0x45, 0x37, 0x03, 0xbf, 0x8e, 0x27, 0x14, 0xbe,
  0xd2, 0xfa, 0x14, 0xbd, 0xc2, 0x4d, 0xe5, 0x3e, 0x1d, 0x47, 0x1a, 0xbe,
  0xae, 0xaa, 0x01, 0x3f, 0x2e, 0x0e, 0x51, 0x3e, 0x56, 0x0e, 0x96, 0x3d,
  0xea, 0xb3, 0x99, 0x3e, 0x8e, 0x8f, 0x1f, 0xbf, 0xef, 0x48, 0xe3, 0xbc,
  0xfb, 0x51, 0x1f, 0x3d, 0x5a, 0xe1, 0x84, 0x3f, 0xd0, 0x48, 0x8a, 0x3c,
  0xcd, 0x5e, 0x3c, 0xbe, 0x9a, 0xe6, 0x81, 0xbd, 0xf9, 0x59, 0x1c, 0x3d,
  0x63, 0x0b, 0xc9, 0x3d, 0xdc, 0x3e, 0xb4, 0x3d, 0x42, 0xcd, 0xf2, 0xbb,
  0x74, 0xd2, 0xc4, 0x3b, 0x0a, 0x29, 0xc6, 0xbf, 0xca, 0xa6, 0x1a, 0x3e,
  0x22, 0xac, 0xae, 0x3b, 0xcf, 0x77, 0xb1, 0x3e, 0x9e, 0xaa, 0xdf, 0x3d,
  0x5c, 0xee, 0x8d, 0x3d, 0x32, 0x58, 0x18, 0xbe, 0x4f, 0x76, 0xd0, 0xbe,
  0x6a, 0x88, 0xf2, 0xba, 0x15, 0x25, 0xcd, 0xbc, 0xc0, 0xce, 0x27, 0xbf,
  0x47, 0x1c, 0x5c, 0xbc, 0x7a, 0x24, 0x7e, 0xbf, 0x46, 0xbb, 0x96, 0x3e,
  0xb7, 0x75, 0xa4, 0xbb, 0x0d, 0x45, 0x80, 0x3f, 0x6d, 0xde, 0xf6, 0xbe,
  0xf3, 0x74, 0xf8, 0x3b, 0x90, 0x0e, 0x9d, 0xbe, 0xa8, 0x99, 0xf3, 0xbe,
  0xe4, 0x34, 0x6c, 0x3c, 0xc5, 0x14, 0xfb, 0x3c, 0xdc, 0x9f, 0x8f, 0xbf,
  0x40, 0x50, 0xdb, 0xbe, 0x30, 0xf9, 0x64, 0x3e, 0x63, 0xb6, 0x02, 0x3e,
  0x99, 0xf9, 0x08, 0x3d, 0x53, 0x1f, 0xe6, 0x3d, 0x66, 0x22, 0x57, 0xbe,
  0xfa, 0x36, 0x1b, 0x3f, 0x2b, 0xf0, 0x40, 0x3c, 0xdb, 0x92, 0x76, 0xbe,
  0x5a, 0x71, 0x88, 0xbd, 0xfd, 0xa1, 0x92, 0x3e, 0xc4, 0xa1, 0xbb, 0xbd,
  0x44, 0xfb, 0xa7, 0x3e, 0x5e, 0x8b, 0x30, 0xbe, 0xbe, 0x05, 0xfb, 0x3e,
  0x0f, 0xd2, 0x26, 0xbd, 0x8a, 0x38, 0x81, 0xbd, 0xfb, 0x8b, 0x45, 0xbe,
  0x38, 0xee, 0x93, 0xbe, 0x72, 0xb0, 0xf2, 0x3e, 0x59, 0xb2, 0xf6, 0x3e,
  0x22, 0x65, 0x9a, 0x3d, 0xc4, 0x27, 0xc0, 0xbd, 0x8f, 0xf8, 0x1a, 0xbf,
  0xf9, 0x78, 0xb2, 0x3b, 0xdc, 0xb0, 0xb4, 0x3f, 0x1b, 0x0d, 0xbd, 0x3e,
  0xe8, 0xb9, 0x2d, 0xbc, 0x72, 0x33, 0x33, 0xbd, 0x80, 0x07, 0x1b, 0xbf,
  0x58, 0x75, 0x67, 0x3b, 0x05, 0x1b, 0x4a, 0xbe, 0x46, 0x43, 0x66, 0xbe,
  0xbd, 0x13, 0x0d, 0x3c, 0xd1, 0x08, 0xd5, 0xbe, 0xee, 0x32, 0x7c, 0x3f,
  0x9c, 0x98, 0x4d, 0xbe, 0x11, 0x4f, 0x0f, 0x3e, 0xb6, 0xd8, 0xd7, 0xbe,
  0x27, 0xe0, 0x9e, 0xbd, 0x34, 0x60, 0x56, 0xbf, 0xe1, 0x82, 0xbf, 0x3e,
  0xad, 0xad, 0x83, 0xbe, 0x3d, 0xc0, 0x0f, 0xbe, 0x5f, 0xa9, 0xf6, 0x3e,
  0x4d, 0x72, 0xcf, 0xbc, 0x2f, 0xd2, 0x7d, 0xbd, 0x63, 0x90, 0x20, 0x3f,
  0xfc, 0xa4, 0x9b, 0x3e, 0xde, 0xc2, 0xa1, 0xbe, 0x9d, 0xd9, 0x1a, 0x3e,
  0x43, 0x39, 0x08, 0xbf, 0xac, 0xae, 0xe9, 0xbe, 0x8f, 0xd5, 0x1d, 0xbd,
  0x42, 0x52, 0xa8, 0xbc, 0x95, 0xaf, 0x81, 0x3e, 0xfc, 0x6f, 0x03, 0x3f,
  0x55, 0x5e, 0xd1, 0x3e, 0x0a, 0xad, 0x15, 0x3f, 0xda, 0xeb, 0x2a, 0xbf,
  0x97, 0x7d, 0x19, 0x3c, 0x89, 0x92, 0xa9, 0x3f, 0xb4, 0xf0, 0x05, 0xbf,
  0xee, 0x9e, 0x91, 0x3c, 0x47, 0xf3, 0xc1, 0xbe, 0x9e, 0x5b, 0x21, 0xbd,
  0xc6, 0x5f, 0xef, 0xbb, 0xf1, 0xc2, 0x61, 0xbc, 0x59, 0xc2, 0x27, 0x3f,
  0x26, 0xa3, 0x51, 0x3c, 0x02, 0x82, 0xc4, 0x3c, 0xef, 0x1b, 0x88, 0x3f,
  0xb0, 0x1e, 0xb9, 0x3c, 0x25, 0x70, 0x11, 0x3f, 0xea, 0xa5, 0xfd, 0xbe,
  0x8c, 0x70, 0x56, 0x3c, 0x3a, 0x2d, 0x81, 0xbf, 0xd6, 0x53, 0xc3, 0x3e,
  0xf8, 0x3b, 0x04, 0x3c, 0x62, 0x77, 0xb3, 0x3e, 0xf6, 0xdf, 0x2a, 0x3f,
  0x22, 0xf9, 0xd4, 0xbc, 0x0f, 0x51, 0xbf, 0xbd, 0xe1, 0xb2, 0x88, 0x3f,
  0x38, 0xdd, 0x68, 0x3c, 0x8a, 0x8e, 0x22, 0xbf, 0x09, 0x65, 0xc7, 0x3e,
  0x35, 0x08, 0x16, 0xbe, 0xd7, 0xeb, 0x76, 0x3f, 0xc4, 0x8d, 0x21, 0xbe,
  0xde, 0xa8, 0xa1, 0xbe, 0x50, 0x77, 0x8a, 0xbd, 0x48, 0x19, 0xdd, 0xbe,
  0xe5, 0xde, 0x83, 0x3d, 0x76, 0xb0, 0x0e, 0x3e, 0x3b, 0xc4, 0xbc, 0xbd,
  0xa5, 0xa3, 0x0a, 0xbe, 0x5e, 0x48, 0xbb, 0xbe, 0x87, 0x09, 0x70, 0x3d,
  0x71, 0x83, 0xf5, 0x3d, 0xf0, 0x2e, 0x2d, 0xbe, 0xc3, 0x85, 0x09, 0xbf,
  0x95, 0x6f, 0x90, 0xbd, 0x66, 0xfd, 0xc8, 0x3d, 0xf3, 0x41, 0x05, 0x3e,
  0x43, 0x40, 0x05, 0xbf, 0xc3, 0xcf, 0x0a, 0x3e, 0xd4, 0xd5, 0x00, 0x3e,
  0x91, 0x6c, 0xd1, 0xbd, 0x16, 0x67, 0x42, 0x3f, 0xbc, 0x26, 0x39, 0x3d,
  0xca, 0xbd, 0x43, 0x3d, 0xbf, 0x62, 0x28, 0x3f, 0x2a, 0xfe, 0x06, 0xbf,
  0xfb, 0xc0, 0x96, 0xbc, 0x8c, 0x0d, 0x8f, 0xbe, 0x0d, 0x47, 0xe9, 0xbe,
  0xe7, 0x15, 0x94, 0x3d, 0x03, 0x98, 0xaa, 0xbe, 0xb3, 0xb8, 0x15, 0x3f,
  0x4d, 0x0b, 0xd9, 0xbd, 0xaa, 0x82, 0xbf, 0xbe, 0xfd, 0x93, 0x98, 0x3e,
  0xfe, 0x9f, 0xac, 0x3e, 0xda, 0x87, 0x91, 0xbe, 0x5e, 0xa6, 0x9d, 0xbe,
  0x55, 0xbf, 0x84, 0x3c, 0xcf, 0x1d, 0x69, 0x3e, 0xb0, 0xc2, 0x59, 0x3e,
  0x2c, 0xc9, 0x9b, 0xbe, 0x2a, 0xa1, 0xb8, 0x3e, 0x1e, 0xb4, 0x87, 0x3c,
  0x44, 0x50, 0xf7, 0xbd, 0x27, 0xa3, 0x6a, 0x3e, 0xe0, 0xb0, 0x74, 0xbe,
  0xa4, 0x1c, 0x8d, 0xbe, 0x93, 0x76, 0x69, 0xbf, 0xa1, 0x53, 0x49, 0xbc,
  0xf3, 0xd8, 0xec, 0xbd, 0x95, 0xc1, 0x50, 0xbc, 0xe1, 0x14, 0xda, 0x3e,
  0x97, 0xb2, 0x6e, 0xbc, 0x35, 0xdd, 0xa1, 0x3e, 0x9f, 0x02, 0xeb, 0x3e,
  0x59, 0xe8, 0x11, 0x3e, 0xf4, 0x29, 0x4b, 0x3f, 0xf4, 0x73, 0x8d, 0x3e,
  0x2f, 0x31, 0x6b, 0xbe, 0x45, 0x7d, 0x65, 0x3d, 0xdc, 0x0d, 0x1b, 0x3d,
  0xfd, 0xbb, 0xb7, 0x3d, 0xc9, 0x9b, 0xab, 0xbd, 0x21, 0x76, 0x18, 0x3e,
  0x0e, 0x4c, 0xf6, 0x3e, 0x9c, 0x35, 0x82, 0xbe, 0x4c, 0x9a, 0x45, 0x3f,
  0xa4, 0x96, 0xbb, 0x38, 0xeb, 0xca, 0x69, 0xbf, 0x6a, 0x2d, 0x1c, 0x3e,
  0xbb, 0xbb, 0x35, 0xbe, 0x68, 0x17, 0x0f, 0x3f, 0xfb, 0x3e, 0x1e, 0x3c,
  0xf9, 0x5e, 0x10, 0x3d, 0x11, 0x07, 0x7d, 0x3e, 0x8a, 0x32, 0x19, 0xbe,
  0x8e, 0x43, 0xf6, 0x3d, 0x70, 0x25, 0xc7, 0xbc, 0x63, 0xe0, 0x92, 0xbf,
  0x24, 0xd3, 0x3d, 0x3e, 0x70, 0x10, 0x7c, 0xbf, 0x87, 0xb5, 0x49, 0x3e,
  0x74, 0xf3, 0x7a, 0xbc, 0x4f, 0xe4, 0x04, 0xbd, 0xc9, 0xb1, 0x00, 0x3e,
  0x9d, 0xd6, 0x82, 0xbe, 0xd8, 0x04, 0x94, 0x3e, 0x2c, 0x9d, 0x43, 0x3e,
  0x49, 0xa9, 0x08, 0x3d, 0x47, 0x79, 0x8d, 0x3e, 0xf8, 0x8b, 0xe9, 0xbe,
  0x32, 0x1b, 0xbe, 0x3b, 0xaf, 0x44, 0x90, 0x3e, 0xcb, 0xa9, 0x67, 0xbd,
  0x29, 0x97, 0x3f, 0xbe, 0xc1, 0x3c, 0x75, 0xbf, 0x83, 0x58, 0x0f, 0xbd,
  0xa4, 0xe4, 0x3f, 0x3e, 0xa6, 0xf9, 0xb3, 0xbd, 0x86, 0x50, 0xa4, 0x3e,
  0x67, 0x19, 0x04, 0xbe, 0x49, 0x1b, 0x68, 0xbe, 0x29, 0xad, 0x0c, 0x3f,
  0x99, 0x7a, 0x43, 0x3d, 0x8c, 0x87, 0xf4, 0x3e, 0x3b, 0x17, 0x0f, 0x3d,
  0x28, 0xe8, 0x2f, 0xbe, 0xf5, 0x77, 0x34, 0xbf, 0x40, 0x5e, 0x6e, 0xbe,
  0x59, 0x9c, 0x27, 0xbe, 0x3c, 0x15, 0xa3, 0xbe, 0x30, 0xef, 0x11, 0xbf,
  0x31, 0xf6, 0x82, 0xbe, 0x78, 0x0f, 0x1f, 0xbd, 0x30, 0x03, 0xa9, 0xbd,
  0x8a, 0x8e, 0x54, 0x3c, 0x8e, 0x26, 0x06, 0xbe, 0x28, 0xeb, 0xe6, 0xbe,
  0x08, 0x15, 0x49, 0x3e, 0x7b, 0x55, 0x08, 0xbe, 0x4c, 0x8a, 0xe7, 0x3e,
  0xd4, 0x86, 0x27, 0x3c, 0x63, 0xd2, 0x28, 0xbe, 0xa8, 0x6a, 0xdb, 0x3e,
  0xc7, 0x40, 0x92, 0xbd, 0xdf, 0xf6, 0x94, 0x3d, 0xaa, 0xf9, 0x1b, 0x3f,
  0x33, 0x3f, 0xcb, 0xbe, 0x4c, 0xad, 0x8e, 0xbf, 0x1f, 0x82, 0x90, 0xbe,
  0x7b, 0x47, 0xde, 0x3d, 0x9a, 0x00, 0x1b, 0xbf, 0x29, 0x26, 0xdb, 0x3d,
  0x09, 0x86, 0xf3, 0x3d, 0x68, 0x53, 0x13, 0x3e, 0x94, 0x93, 0x94, 0xbe,
  0x70, 0xf6, 0x70, 0x3e, 0xec, 0x34, 0xd9, 0x3d, 0x78, 0x06, 0xea, 0xbe,
  0x41, 0xc2, 0xa0, 0x3e, 0xca, 0xcb, 0x3c, 0x3e, 0xe8, 0x7c, 0x47, 0xbe,
  0xe6, 0xbc, 0x4d, 0xbe, 0xc9, 0x0e, 0xb0, 0xbf, 0xc2, 0x45, 0xab, 0x3d,
  0x2f, 0x3d, 0xaa, 0xbd, 0xe6, 0x5c, 0x4f, 0x3e, 0x38, 0x0b, 0xf1, 0x3e,
  0xbc, 0x85, 0x15, 0x3c, 0x66, 0x5d, 0x2b, 0xbe, 0xd5, 0x72, 0x13, 0x3f,
  0x4a, 0xa7, 0xc0, 0xbd, 0xe0, 0x86, 0xca, 0xbc, 0x8e, 0xbd, 0x88, 0x3e,
  0x10, 0x49, 0x4e, 0xbe, 0x48, 0xce, 0x67, 0x3f, 0x43, 0x79, 0xc9, 0xbe,
  0x04, 0x2c, 0xe9, 0x3e, 0x2f, 0x47, 0x46, 0x3d, 0xf4, 0x5c, 0x13, 0xbf,
  0x38, 0x54, 0xfe, 0x3d, 0xa4, 0xfc, 0x29, 0xbe, 0x52, 0x63, 0x26, 0xbe,
  0xbf, 0xdf, 0x0a, 0x3c, 0xc5, 0xad, 0xa0, 0xbf, 0x84, 0xea, 0x0d, 0x3f,
  0x7e, 0x4e, 0x50, 0xba, 0x56, 0xc5, 0x8e, 0x3f, 0xb1, 0x83, 0x7f, 0xbe,
  0x8a, 0xb4, 0x8d, 0x3a, 0x13, 0xba, 0xea, 0xbd, 0x76, 0xa4, 0x9e, 0xbe,
  0xa7, 0xbf, 0xba, 0x3b, 0xf7, 0xde, 0xe7, 0x3d, 0x2a, 0xfa, 0x7a, 0xbf,
  0xd3, 0x2e, 0x9d, 0xbb, 0xd1, 0x1b, 0xa1, 0xbe, 0x65, 0x1f, 0xf3, 0x3e,
  0x88, 0x02, 0xd4, 0xbe, 0x9a, 0xdd, 0x7b, 0xbe, 0xd5, 0x13, 0x6f, 0xbe,
  0xf9, 0x3b, 0xbc, 0x3e, 0x14, 0xb9, 0xa5, 0x3e, 0x72, 0x8f, 0x63, 0x3e,
  0x24, 0xcb, 0x47, 0xbe, 0x3f, 0x07, 0x99, 0xbe, 0x86, 0x63, 0x00, 0xbe,
  0x72, 0x99, 0x00, 0xbe, 0x67, 0x5a, 0x30, 0xbf, 0x80, 0x4e, 0x9f, 0x3e,
  0x1c, 0xd6, 0xa8, 0x3e, 0xbc, 0xf5, 0x60, 0x3d, 0x16, 0x20, 0x7a, 0xbd,
  0x9a, 0x0c, 0x3c, 0x3e, 0xf5, 0x9f, 0x85, 0x3d, 0x47, 0x32, 0x63, 0x3e,
  0x6f, 0x66, 0x0d, 0x3f, 0xc5, 0x85, 0xb5, 0x3e, 0x6b, 0xf3, 0x87, 0xbd,
  0xfd, 0x03, 0x13, 0xbd, 0x2c, 0xbb, 0x23, 0xbf, 0xf1, 0x24, 0xa9, 0x3d,
  0x4e, 0x7f, 0x42, 0xbd, 0xde, 0x1c, 0x4b, 0x3f, 0x64, 0x21, 0x9f, 0xbe,
  0x5f, 0x14, 0x45, 0x3c, 0xa5, 0x75, 0x5f, 0xbe, 0x60, 0xe4, 0xaf, 0xbe,
  0xb1, 0x82, 0x5e, 0xbc, 0x3c, 0xee, 0x36, 0xbd, 0x64, 0x5a, 0x8c, 0xbf,
  0xbc, 0x5a, 0xae, 0xbb, 0xdd, 0xa4, 0xe0, 0xbd, 0x37, 0x75, 0x24, 0x3f,
  0x2e, 0xbd, 0xc0, 0x3e, 0xa6, 0xee, 0x45, 0x3f, 0x16, 0xf4, 0x3e, 0xbf,
  0xa2, 0x0b, 0x19, 0x3d, 0xa2, 0xaa, 0xa8, 0x3d, 0x55, 0x71, 0xfc, 0xbd,
  0xa0, 0xa0, 0xda, 0xbd, 0xa3, 0x74, 0x34, 0x3e, 0x8c, 0x2e, 0xc8, 0xbe,
  0xd9, 0xa1, 0x9f, 0x3c, 0x5d, 0x6e, 0xa9, 0xbf, 0x61, 0x9f, 0x97, 0xbd,
  0x26, 0xc8, 0xe0, 0xbc, 0xfd, 0x54, 0x07, 0x3e, 0x34, 0xf2, 0x67, 0x3c,
  0xa6, 0x29, 0x03, 0x3d, 0x3c, 0x1e, 0x43, 0xbe, 0x74, 0xa4, 0x24, 0xbd,
  0xb7, 0x7f, 0x75, 0xbc, 0x71, 0x52, 0x06, 0x3e, 0x3e, 0x9b, 0x88, 0xbf,
  0x9b, 0xca, 0xdc, 0xbd, 0xc3, 0x35, 0x16, 0xbf, 0x1f, 0x99, 0xc2, 0xbe,
  0x1f, 0x84, 0xa1, 0xbd, 0x0e, 0x79, 0xce, 0xbd, 0xb0, 0x22, 0xc9, 0x3e,
  0x72, 0x2c, 0xbe, 0x3c, 0x9b, 0x0b, 0xba, 0xbe, 0xb5, 0x14, 0xb6, 0xbe,
  0xa9, 0xfc, 0xf1, 0x3b, 0xdb, 0xa1, 0xeb, 0x3e, 0xf3, 0x54, 0xb0, 0xbf,
  0x18, 0x7a, 0xf4, 0xbe, 0xc6, 0x18, 0xee, 0xbb, 0x03, 0x4b, 0x40, 0xbe,
  0xf0, 0xb5, 0x97, 0x3e, 0xd9, 0x6a, 0x70, 0xbf, 0x23, 0x4b, 0xa7, 0x3e,
  0x1a, 0x38, 0xdf, 0x3a, 0xb7, 0x8a, 0x57, 0xbc, 0x64, 0x9f, 0x89, 0x3c,
  0x42, 0xa1, 0xc0, 0x3c, 0xdc, 0xee, 0xb1, 0x3e, 0xda, 0x1d, 0x93, 0x3e,
  0x84, 0x55, 0xfd, 0x3c, 0xb5, 0x99, 0xc5, 0x3d, 0x33, 0x26, 0x14, 0xbe,
  0xda, 0x83, 0x87, 0xbe, 0x78, 0xb2, 0x86, 0xbf, 0xfb, 0x7e, 0x8f, 0xbd,
  0xba, 0x09, 0x77, 0x3e, 0x19, 0xed, 0x91, 0x3e, 0x97, 0x41, 0xb1, 0x3e,
  0x41, 0x5a, 0x28, 0xbe, 0x03, 0x84, 0xac, 0xbe, 0x03, 0x29, 0x49, 0x3f,
  0xd5, 0x1e, 0xc4, 0x3e, 0x29, 0x23, 0x98, 0x3e, 0x40, 0xb3, 0x0c, 0x3f,
  0xe5, 0xe5, 0x17, 0x3b, 0x70, 0x47, 0x1e, 0x3f, 0xdd, 0x79, 0x13, 0xbf,
  0x1b, 0xc6, 0x0b, 0xbf, 0x3b, 0x48, 0x39, 0x3e, 0x10, 0x74, 0xcc, 0x3d,
  0xcf, 0x94, 0x13, 0x3e, 0x2d, 0x5a, 0x1e, 0x3e, 0x1f, 0xde, 0xdb, 0xbe,
  0x0b, 0x0d, 0xd8, 0x3e, 0x89, 0x4d, 0x5c, 0xbd, 0xc5, 0x63, 0xa7, 0x3e,
  0xfc, 0x82, 0x35, 0x3d, 0xa2, 0xd2, 0xbb, 0x3e, 0x18, 0x42, 0xbf, 0xbe,
  0xd4, 0x89, 0x07, 0xbf, 0xa3, 0xc5, 0x2a, 0xbe, 0xfe, 0x84, 0xcb, 0xbe,
  0x67, 0x25, 0xfa, 0xbd, 0x0a, 0x46, 0x0f, 0x3e, 0x2d, 0x5e, 0xfd, 0x3d,
  0x95, 0x77, 0x5c, 0x3c, 0x6e, 0x62, 0x46, 0xbd, 0xb1, 0x4c, 0x4f, 0xbe,
  0x52, 0x58, 0x0f, 0xbe, 0xb8, 0x67, 0x34, 0xbf, 0x16, 0x0b, 0xff, 0x3d,
  0x72, 0x03, 0x0e, 0x3e, 0xaa, 0xbd, 0x49, 0x3e, 0x11, 0xe2, 0x77, 0x3f,
  0xdf, 0x50, 0x23, 0xbe, 0xb6, 0xe7, 0x98, 0xbe, 0xa2, 0xde, 0x14, 0x3e,
  0x74, 0x23, 0x3a, 0xbe, 0xa7, 0xeb, 0x8d, 0xbc, 0xe0, 0x01, 0x24, 0x3f,
  0x4d, 0xb0, 0xdb, 0x3e, 0xec, 0x5f, 0x07, 0x3f, 0xce, 0x20, 0x15, 0xbf,
  0x2d, 0x5e, 0xb5, 0xbd, 0xab, 0xe9, 0xca, 0x3e, 0x18, 0x41, 0x8a, 0xbe,
  0x4d, 0x60, 0xfe, 0xbe, 0x23, 0x11, 0x56, 0x3d, 0x17, 0xbb, 0x74, 0xbe,
  0xd2, 0x15, 0xaf, 0xbe, 0x38, 0xc9, 0x17, 0x3e, 0x47, 0x0f, 0x90, 0x3e,
  0x74, 0xcc, 0xa5, 0xbe, 0x09, 0x9e, 0xab, 0xbe, 0xf1, 0xeb, 0xee, 0x3d,
  0xc4, 0xac, 0xbe, 0x3e, 0x9f, 0x00, 0x0c, 0xbe, 0x33, 0xd8, 0xa3, 0xbe,
  0xa6, 0xe5, 0xa9, 0x3e, 0xfa, 0x64, 0x08, 0xbd, 0x14, 0x3b, 0xb9, 0x3e,
  0xa2, 0x71, 0x00, 0xbd, 0x2e, 0x68, 0x4a, 0xbc, 0x78, 0x4d, 0x1e, 0x3d,
  0xdd, 0xc2, 0xf5, 0xbe, 0xe7, 0x9e, 0x8a, 0x3e, 0x6d, 0xbf, 0x19, 0xbe,
  0x96, 0xbf, 0x4c, 0x3d, 0x10, 0x3a, 0xc7, 0x3e, 0x59, 0x1b, 0xf1, 0x3e,
  0xf3, 0xd9, 0xe6, 0x3e, 0xf9, 0x11, 0xae, 0xbe, 0x5e, 0x24, 0xb1, 0xbe,
  0x8e, 0x74, 0x3a, 0xbd, 0x80, 0x25, 0x5e, 0x3f, 0x55, 0xca, 0x90, 0x3e,
  0x10, 0x07, 0x33, 0xbe, 0x30, 0xb6, 0x0e, 0x3f, 0x17, 0xae, 0x13, 0xbf,
  0xde, 0x6c, 0xbb, 0x3e, 0xe7, 0x6c, 0x8c, 0xbe, 0xc5, 0x84, 0xf3, 0xbe,
  0xde, 0x23, 0xff, 0x3c, 0x52, 0x6a, 0xbe, 0xbe, 0xd6, 0x94, 0x18, 0x3f,
  0xa1, 0x47, 0x0a, 0x3b, 0xd8, 0x4a, 0x9a, 0x3f, 0xd7, 0x6d, 0xcc, 0xbe,
  0x09, 0x82, 0x6d, 0x3e, 0x39, 0x29, 0x94, 0x3e, 0xae, 0x3f, 0xa3, 0x3e,
  0x41, 0x6e, 0x11, 0xbe, 0xd3, 0xbc, 0x6b, 0xbd, 0xaa, 0xe4, 0x55, 0x3e,
  0x96, 0x0f, 0xce, 0x3d, 0x4e, 0xd4, 0x65, 0x3c, 0x06, 0x1e, 0x6a, 0x3f,
  0x88, 0xe9, 0xdf, 0xbd, 0x5f, 0xb2, 0x8f, 0xbf, 0x56, 0x22, 0x55, 0x3f,
  0x84, 0x07, 0x7b, 0x3e, 0x50, 0xa6, 0xe3, 0x3e, 0xf3, 0x89, 0x7c, 0xbe,
  0xe1, 0x49, 0x40, 0xbe, 0x80, 0x1e, 0x11, 0x3f, 0x43, 0xd1, 0x55, 0x3e,
  0x4d, 0xd4, 0x17, 0x3d, 0xbb, 0x6a, 0x29, 0x3e, 0xf6, 0x73, 0x96, 0xbd,
  0x53, 0x8f, 0x03, 0xbe, 0x41, 0xdb, 0x91, 0x3e, 0x6d, 0xdf, 0xa8, 0x3e,
  0x2a, 0xbd, 0xf9, 0x3a, 0xe7, 0x5f, 0x88, 0x3e, 0x6b, 0x04, 0x8c, 0xbd,
  0x2a, 0x33, 0xd6, 0xbe, 0x38, 0xcb, 0xb1, 0xbd, 0xcf, 0x5e, 0x73, 0xbe,
  0x8e, 0x66, 0xc0, 0x3c, 0x12, 0x87, 0x92, 0x3e, 0x76, 0x6f, 0x00, 0x3e,
  0x54, 0x91, 0xf7, 0x3d, 0x3e, 0x94, 0x92, 0x3f, 0xc9, 0xa3, 0x72, 0x3e,
  0x69, 0xf8, 0x5f, 0xbe, 0xe5, 0xfb, 0xc2, 0xbd, 0x15, 0x02, 0xb9, 0xbe,
  0x28, 0xd1, 0xbd, 0x3d, 0x57, 0x6a, 0x03, 0xbe, 0xee, 0x63, 0x0e, 0x3f,
  0x43, 0xc5, 0x84, 0x3e, 0x67, 0x34, 0xd5, 0xbe, 0xf5, 0xc1, 0xfc, 0x3e,
  0x17, 0xd1, 0x83, 0x3e, 0x15, 0x41, 0x44, 0xbf, 0xec, 0x2a, 0x48, 0x3f,
  0x23, 0xd5, 0xa3, 0xbe, 0x6f, 0xd0, 0x26, 0x3f, 0x1b, 0x35, 0xa6, 0xbe,
  0x72, 0x3d, 0x36, 0x3b, 0x90, 0xd9, 0x88, 0x3e, 0x88, 0x51, 0x86, 0xbe,
  0x54, 0x62, 0x10, 0xbd, 0x5e, 0x4c, 0x10, 0x3e, 0xa3, 0x48, 0x01, 0xbf,
  0x33, 0x1d, 0xc1, 0x3b, 0x1f, 0xff, 0x34, 0x3f, 0x6a, 0x4c, 0x0c, 0xbe,
  0x29, 0xb2, 0xa3, 0xbe, 0xdf, 0xf3, 0xe8, 0x3d, 0xd5, 0xd6, 0x22, 0x3d,
  0xd0, 0x92, 0x7f, 0x3d, 0xb7, 0x2b, 0xb1, 0x3e, 0x6c, 0xad, 0xed, 0x3e,
  0x80, 0x34, 0xcb, 0x3e, 0xc8, 0xc8, 0x4d, 0xbe, 0x30, 0xb6, 0xbc, 0x3e,
  0xd2, 0x4a, 0x21, 0x3c, 0xec, 0xc6, 0x6c, 0xbf, 0xa0, 0xbf, 0x10, 0xbf,
  0xa5, 0x0d, 0x3c, 0xba, 0xdd, 0x42, 0x06, 0xbf, 0x88, 0x84, 0x40, 0x3f,
  0x41, 0x17, 0x23, 0x3c, 0xd8, 0xf3, 0x5d, 0x3e, 0x7e, 0x18, 0x1f, 0x3f,
  0x6c, 0xe9, 0x87, 0xbd, 0xd5, 0x1b, 0x82, 0x3e, 0x45, 0xe3, 0xf8, 0x3d,
  0xf5, 0x68, 0x9d, 0xbd, 0xd1, 0x5a, 0x3d, 0xbd, 0x64, 0xdb, 0x38, 0x3f,
  0x2c, 0x61, 0x04, 0xbe, 0x52, 0x84, 0x75, 0x3f, 0x8d, 0x79, 0x79, 0xbe,
  0xc8, 0xfc, 0xd6, 0x3d, 0xe3, 0x53, 0x43, 0xbc, 0x27, 0xe2, 0x10, 0xbf,
  0x76, 0xc3, 0xc8, 0xbc, 0x6f, 0x9e, 0xcb, 0xbe, 0xe6, 0x20, 0xdf, 0xbe,
  0x69, 0xbd, 0x9b, 0xbe, 0x44, 0x35, 0xdf, 0xbe, 0x1f, 0xc2, 0xb9, 0xbc,
  0xd1, 0x92, 0x42, 0x3c, 0xb3, 0xd0, 0x77, 0x3d, 0x39, 0x1c, 0xce, 0xbc,
  0xaa, 0x55, 0xc6, 0xbe, 0x02, 0xd2, 0x9c, 0xbe, 0xaa, 0x52, 0x31, 0x3d,
  0x46, 0xac, 0x62, 0x3e, 0x7f, 0x57, 0xc2, 0x3e, 0x29, 0xdb, 0xf1, 0x3d,
  0x30, 0xc8, 0xa5, 0x39, 0xf3, 0xcd, 0xd2, 0xbf, 0x35, 0x98, 0xf7, 0xbe,
  0x6c, 0x9c, 0x2e, 0x3c, 0x69, 0x30, 0x4d, 0xbf, 0x50, 0x46, 0x16, 0x3f,
  0xbe, 0x5d, 0xa7, 0x3c, 0xad, 0xb9, 0x6a, 0x3e, 0x47, 0x96, 0xbb, 0x3d,
  0x13, 0x65, 0x94, 0x3b, 0xd3, 0x52, 0xb4, 0x3d, 0x42, 0x17, 0x90, 0xbf,
  0xa8, 0x12, 0x9f, 0xbc, 0xd1, 0x78, 0x21, 0xbe, 0xa6, 0x48, 0x0c, 0x3e,
  0x4b, 0x34, 0xc6, 0xbe, 0xb5, 0x63, 0x64, 0x3f, 0x0f, 0x66, 0x17, 0x3d,
  0x85, 0x56, 0x09, 0x3d, 0xc7, 0xdd, 0x5d, 0x3e, 0xcf, 0x13, 0xf4, 0x3d,
  0x2d, 0x33, 0xb6, 0x3e, 0xc0, 0x96, 0xeb, 0xbd, 0xf4, 0xdb, 0x58, 0xbf,
  0x7b, 0xbf, 0x15, 0x3c, 0x4b, 0x56, 0x6d, 0xbf, 0xd1, 0x72, 0x80, 0x3f,
  0x09, 0x8e, 0xdb, 0xbc, 0x28, 0xfc, 0x4a, 0x3f, 0xa7, 0xd7, 0x46, 0xbf,
  0xd6, 0x0c, 0xcc, 0xbb, 0x7f, 0x3c, 0x1b, 0x3f, 0x78, 0x64, 0x93, 0x3e,
  0xc5, 0xba, 0x99, 0xbb, 0x17, 0x77, 0xd6, 0x3d, 0x05, 0x19, 0x8d, 0xbe,
  0x6a, 0x11, 0x60, 0xbc, 0x6e, 0xbc, 0xc4, 0x3f, 0xd3, 0xae, 0x7f, 0xbc,
  0xcd, 0x67, 0x4d, 0x3a, 0x42, 0x5e, 0x09, 0xbe, 0x4f, 0x1b, 0xe0, 0xbd,
  0x7d, 0x2b, 0x84, 0x3c, 0x62, 0x82, 0x06, 0xbe, 0x2b, 0x08, 0xcf, 0x3e,
  0xe5, 0x41, 0x09, 0xbc, 0x28, 0x61, 0x47, 0xbe, 0x28, 0xe5, 0x96, 0x3f,
  0x35, 0x94, 0x26, 0xbd, 0x67, 0x8b, 0x99, 0x3d, 0x95, 0x09, 0xab, 0x3d,
  0x9f, 0x02, 0x15, 0x3f, 0x32, 0x14, 0xef, 0xbe, 0x68, 0x61, 0xeb, 0x3d,
  0xc8, 0xc4, 0x0c, 0xbf, 0x1c, 0x0e, 0x6c, 0x3e, 0xa1, 0xce, 0xdf, 0x3d,
  0x8f, 0x16, 0xab, 0x3e, 0xa5, 0x45, 0xaa, 0x3d, 0x17, 0xfe, 0xb2, 0xbd,
  0x6a, 0x98, 0x45, 0x3d, 0x77, 0x76, 0xcd, 0x3e, 0x91, 0xf6, 0x37, 0x3e,
  0x7d, 0x6c, 0xdb, 0x3e, 0x4a, 0x9f, 0x4c, 0xbf, 0xb0, 0x29, 0xa0, 0x3e,
  0x33, 0xad, 0xe7, 0xbe, 0xe3, 0x68, 0x4f, 0xbd, 0x10, 0xf1, 0x64, 0x3e,
  0x8d, 0xbf, 0xf5, 0x3e, 0x99, 0x87, 0xa0, 0x3d, 0x98, 0x1b, 0x23, 0xbe,
  0x2c, 0x3e, 0x4b, 0x3e, 0xc9, 0x1c, 0x08, 0x3f, 0x2d, 0x93, 0x13, 0xbe,
  0x67, 0xe4, 0x38, 0xbe, 0x76, 0xa7, 0x8f, 0xbf, 0x3d, 0xa0, 0x4e, 0x3e,
  0x32, 0x45, 0xcd, 0xbd, 0x87, 0x7e, 0xdb, 0xbd, 0xa3, 0x77, 0x5f, 0x3f,
  0x39, 0x6f, 0x92, 0x3d, 0x58, 0x4e, 0xbf, 0xbd, 0xe7, 0xd6, 0x31, 0x3f,
  0x00, 0x00, 0x00, 0x00, 0x76, 0xff, 0xff, 0xff, 0x04, 0x00, 0x00, 0x00,
  0x08, 0x00, 0x00, 0x00, 0xff, 0xff, 0xff, 0xff, 0x0c, 0x00, 0x00, 0x00,
  0x00, 0x00, 0x00, 0x00, 0x00, 0x00, 0x00, 0x00, 0x00, 0x00, 0x00, 0x00,
  0x96, 0xff, 0xff, 0xff, 0x04, 0x00, 0x00, 0x00, 0x14, 0x00, 0x00, 0x00,
  0xa3, 0xdc, 0xcd, 0x3e, 0xb7, 0x70, 0xdc, 0x3d, 0x5b, 0x32, 0x19, 0xbd,
  0xbc, 0xff, 0x6e, 0xbe, 0x67, 0x26, 0xbc, 0xbe, 0xb6, 0xff, 0xff, 0xff,
  0x04, 0x00, 0x00, 0x00, 0x3c, 0x00, 0x00, 0x00, 0x46, 0x8b, 0x87, 0x3e,
  0x5d, 0x6a, 0xcd, 0xbc, 0xdf, 0x27, 0x30, 0x3e, 0x36, 0x99, 0x45, 0x3d,
  0xc4, 0xc9, 0x4d, 0x3d, 0xdc, 0x4e, 0x7d, 0x3e, 0x0a, 0x25, 0xe3, 0x3d,
  0xc1, 0xd4, 0xa6, 0x3e, 0x6f, 0xe3, 0xc8, 0x3d, 0x2e, 0x07, 0xd8, 0x3b,
  0x31, 0x41, 0x76, 0x3c, 0x20, 0xec, 0x56, 0x3d, 0x20, 0x3e, 0x6d, 0x3e,
  0x28, 0x6a, 0x22, 0x3e, 0xc4, 0x8f, 0x87, 0x3d, 0x00, 0x00, 0x06, 0x00,
  0x08, 0x00, 0x04, 0x00, 0x06, 0x00, 0x00, 0x00, 0x04, 0x00, 0x00, 0x00,
  0xf0, 0x00, 0x00, 0x00, 0x51, 0x15, 0x8b, 0x3e, 0x72, 0xf5, 0x4d, 0xbc,
  0xec, 0x8c, 0x8a, 0xbd, 0x02, 0xfb, 0x93, 0xbe, 0xaa, 0xe2, 0x61, 0xbd,
  0x74, 0x85, 0xce, 0x3d, 0x81, 0xd1, 0x1c, 0x3e, 0xc1, 0x4b, 0x4f, 0xbe,
  0x95, 0x00, 0x0b, 0xbd, 0xca, 0xdd, 0xe4, 0x3d, 0x80, 0x35, 0xcc, 0xbd,
  0xed, 0xc1, 0x74, 0xbe, 0x91, 0xf5, 0x10, 0x3d, 0xd5, 0xe8, 0x43, 0xbd,
  0x34, 0xe4, 0xef, 0x3d, 0x52, 0x40, 0x0f, 0xbd, 0x3b, 0x24, 0xbc, 0x3d,
  0x6b, 0xc4, 0x46, 0x3d, 0x3c, 0x02, 0x3c, 0xbd, 0x4e, 0xaa, 0xcb, 0xbc,
  0x33, 0x7f, 0x8d, 0x3d, 0x52, 0x9d, 0x9c, 0x3b, 0x8a, 0x01, 0x7f, 0xbc,
  0xdb, 0x81, 0x81, 0xbd, 0x19, 0x60, 0x5c, 0xbb, 0x71, 0xf7, 0x4a, 0xbb,
  0x5e, 0x6f, 0x0d, 0xbd, 0x7a, 0xcd, 0x7d, 0x3d, 0xad, 0x48, 0x66, 0x3e,
  0xfb, 0x5a, 0xb3, 0x3d, 0x4c, 0x6e, 0x3d, 0xbe, 0x19, 0xf9, 0xac, 0x3d,
  0x20, 0xc3, 0x1f, 0x3d, 0x5f, 0x5c, 0xba, 0x3d, 0x7b, 0xcd, 0x6a, 0xbd,
  0x13, 0xbe, 0x31, 0xbe, 0x1f, 0x9e, 0x08, 0xbd, 0xea, 0xe3, 0x16, 0xbe,
  0x56, 0x80, 0xdc, 0x3d, 0x9a, 0xf9, 0x87, 0xbd, 0xb3, 0x42, 0xcc, 0x3d,
  0xf3, 0x6d, 0x15, 0xbc, 0x3f, 0xdd, 0x83, 0x3a, 0xd5, 0x59, 0x66, 0x3d,
  0x29, 0x16, 0xd6, 0x3c, 0x60, 0x21, 0xbb, 0x3d, 0xbd, 0xf5, 0xa2, 0xbd,
  0x97, 0xe2, 0xfd, 0xbc, 0x6e, 0x40, 0x80, 0x3a, 0xf6, 0x69, 0x98, 0xbb,
  0x95, 0x15, 0x43, 0xbe, 0x77, 0x13, 0x07, 0x3e, 0x69, 0x4e, 0x86, 0x3c,
  0xe0, 0x5f, 0xc1, 0xbc, 0xe4, 0x21, 0x0f, 0x3d, 0xc0, 0xa3, 0x30, 0x3e,
  0x89, 0xcd, 0x28, 0x3d, 0xeb, 0xed, 0xfb, 0xbb, 0x9f, 0x0f, 0xb2, 0xbd,
  0x65, 0xf3, 0xcc, 0xbd, 0x00, 0x00, 0x00, 0x00, 0x00, 0x00, 0x00, 0x00,
  0x00, 0x00, 0x00, 0x00, 0xec, 0xf9, 0xff, 0xff, 0x00, 0x00, 0x00, 0x00,
  0x00, 0x00, 0x00, 0x00, 0x00, 0x00, 0x00, 0x00, 0xfc, 0xf9, 0xff, 0xff,
  0x0f, 0x00, 0x00, 0x00, 0x4d, 0x4c, 0x49, 0x52, 0x20, 0x43, 0x6f, 0x6e,
  0x76, 0x65, 0x72, 0x74, 0x65, 0x64, 0x2e, 0x00, 0x01, 0x00, 0x00, 0x00,
  0x14, 0x00, 0x00, 0x00, 0x00, 0x00, 0x0e, 0x00, 0x18, 0x00, 0x04, 0x00,
  0x08, 0x00, 0x0c, 0x00, 0x10, 0x00, 0x14, 0x00, 0x0e, 0x00, 0x00, 0x00,
  0x3c, 0x01, 0x00, 0x00, 0x30, 0x01, 0x00, 0x00, 0x24, 0x01, 0x00, 0x00,
  0x14, 0x00, 0x00, 0x00, 0x04, 0x00, 0x00, 0x00, 0x04, 0x00, 0x00, 0x00,
  0x6d, 0x61, 0x69, 0x6e, 0x00, 0x00, 0x00, 0x00, 0x04, 0x00, 0x00, 0x00,
  0xe8, 0x00, 0x00, 0x00, 0x98, 0x00, 0x00, 0x00, 0x4c, 0x00, 0x00, 0x00,
  0x04, 0x00, 0x00, 0x00, 0xca, 0xff, 0xff, 0xff, 0x00, 0x00, 0x00, 0x08,
  0x01, 0x00, 0x00, 0x00, 0x18, 0x00, 0x00, 0x00, 0x0c, 0x00, 0x00, 0x00,
  0x04, 0x00, 0x00, 0x00, 0x7c, 0xfa, 0xff, 0xff, 0x01, 0x00, 0x00, 0x00,
  0x0b, 0x00, 0x00, 0x00, 0x03, 0x00, 0x00, 0x00, 0x0a, 0x00, 0x00, 0x00,
  0x07, 0x00, 0x00, 0x00, 0x03, 0x00, 0x00, 0x00, 0x00, 0x00, 0x0e, 0x00,
  0x18, 0x00, 0x08, 0x00, 0x0c, 0x00, 0x10, 0x00, 0x07, 0x00, 0x14, 0x00,
  0x0e, 0x00, 0x00, 0x00, 0x00, 0x00, 0x00, 0x08, 0x01, 0x00, 0x00, 0x00,
  0x1c, 0x00, 0x00, 0x00, 0x10, 0x00, 0x00, 0x00, 0x04, 0x00, 0x00, 0x00,
  0xb6, 0xff, 0xff, 0xff, 0x00, 0x00, 0x00, 0x01, 0x01, 0x00, 0x00, 0x00,
  0x0a, 0x00, 0x00, 0x00, 0x03, 0x00, 0x00, 0x00, 0x09, 0x00, 0x00, 0x00,
  0x06, 0x00, 0x00, 0x00, 0x02, 0x00, 0x00, 0x00, 0x00, 0x00, 0x0e, 0x00,
  0x1a, 0x00, 0x08, 0x00, 0x0c, 0x00, 0x10, 0x00, 0x07, 0x00, 0x14, 0x00,
  0x0e, 0x00, 0x00, 0x00, 0x00, 0x00, 0x00, 0x08, 0x01, 0x00, 0x00, 0x00,
  0x24, 0x00, 0x00, 0x00, 0x18, 0x00, 0x00, 0x00, 0x0c, 0x00, 0x00, 0x00,
  0x00, 0x00, 0x06, 0x00, 0x08, 0x00, 0x07, 0x00, 0x06, 0x00, 0x00, 0x00,
  0x00, 0x00, 0x00, 0x01, 0x01, 0x00, 0x00, 0x00, 0x09, 0x00, 0x00, 0x00,
  0x03, 0x00, 0x00, 0x00, 0x08, 0x00, 0x00, 0x00, 0x05, 0x00, 0x00, 0x00,
  0x01, 0x00, 0x00, 0x00, 0x00, 0x00, 0x0a, 0x00, 0x0c, 0x00, 0x00, 0x00,
  0x04, 0x00, 0x08, 0x00, 0x0a, 0x00, 0x00, 0x00, 0x10, 0x00, 0x00, 0x00,
  0x04, 0x00, 0x00, 0x00, 0x01, 0x00, 0x00, 0x00, 0x08, 0x00, 0x00, 0x00,
  0x02, 0x00, 0x00, 0x00, 0x00, 0x00, 0x00, 0x00, 0x04, 0x00, 0x00, 0x00,
  0x01, 0x00, 0x00, 0x00, 0x0b, 0x00, 0x00, 0x00, 0x01, 0x00, 0x00, 0x00,
  0x00, 0x00, 0x00, 0x00, 0x0c, 0x00, 0x00, 0x00, 0x68, 0x04, 0x00, 0x00,
  0xf4, 0x03, 0x00, 0x00, 0x84, 0x03, 0x00, 0x00, 0x1c, 0x03, 0x00, 0x00,
  0xd0, 0x02, 0x00, 0x00, 0x74, 0x02, 0x00, 0x00, 0x28, 0x02, 0x00, 0x00,
  0xd4, 0x01, 0x00, 0x00, 0x74, 0x01, 0x00, 0x00, 0xe0, 0x00, 0x00, 0x00,
  0x4c, 0x00, 0x00, 0x00, 0x04, 0x00, 0x00, 0x00, 0xdc, 0xfb, 0xff, 0xff,
  0x34, 0x00, 0x00, 0x00, 0x0c, 0x00, 0x00, 0x00, 0x1c, 0x00, 0x00, 0x00,
  0x14, 0x00, 0x00, 0x00, 0x04, 0x00, 0x00, 0x00, 0x02, 0x00, 0x00, 0x00,
  0xff, 0xff, 0xff, 0xff, 0x05, 0x00, 0x00, 0x00, 0xc4, 0xfb, 0xff, 0xff,
  0x08, 0x00, 0x00, 0x00, 0x49, 0x64, 0x65, 0x6e, 0x74, 0x69, 0x74, 0x79,
  0x00, 0x00, 0x00, 0x00, 0x02, 0x00, 0x00, 0x00, 0x01, 0x00, 0x00, 0x00,
  0x05, 0x00, 0x00, 0x00, 0x20, 0xfc, 0xff, 0xff, 0x80, 0x00, 0x00, 0x00,
  0x0b, 0x00, 0x00, 0x00, 0x1c, 0x00, 0x00, 0x00, 0x14, 0x00, 0x00, 0x00,
  0x04, 0x00, 0x00, 0x00, 0x02, 0x00, 0x00, 0x00, 0xff, 0xff, 0xff, 0xff,
  0x0f, 0x00, 0x00, 0x00, 0x08, 0xfc, 0xff, 0xff, 0x55, 0x00, 0x00, 0x00,
  0x73, 0x65, 0x71, 0x75, 0x65, 0x6e, 0x74, 0x69, 0x61, 0x6c, 0x5f, 0x32,
  0x33, 0x2f, 0x4c, 0x61, 0x79, 0x65, 0x72, 0x5f, 0x32, 0x2f, 0x4d, 0x61,
  0x74, 0x4d, 0x75, 0x6c, 0x3b, 0x73, 0x65, 0x71, 0x75, 0x65, 0x6e, 0x74,
  0x69, 0x61, 0x6c, 0x5f, 0x32, 0x33, 0x2f, 0x4c, 0x61, 0x79, 0x65, 0x72,
  0x5f, 0x32, 0x2f, 0x52, 0x65, 0x6c, 0x75, 0x3b, 0x73, 0x65, 0x71, 0x75,
  0x65, 0x6e, 0x74, 0x69, 0x61, 0x6c, 0x5f, 0x32, 0x33, 0x2f, 0x4c, 0x61,
  0x79, 0x65, 0x72, 0x5f, 0x32, 0x2f, 0x42, 0x69, 0x61, 0x73, 0x41, 0x64,
  0x64, 0x00, 0x00, 0x00, 0x02, 0x00, 0x00, 0x00, 0x01, 0x00, 0x00, 0x00,
  0x0f, 0x00, 0x00, 0x00, 0xb0, 0xfc, 0xff, 0xff, 0x80, 0x00, 0x00, 0x00,
  0x0a, 0x00, 0x00, 0x00, 0x1c, 0x00, 0x00, 0x00, 0x14, 0x00, 0x00, 0x00,
  0x04, 0x00, 0x00, 0x00, 0x02, 0x00, 0x00, 0x00, 0xff, 0xff, 0xff, 0xff,
  0x3c, 0x00, 0x00, 0x00, 0x98, 0xfc, 0xff, 0xff, 0x55, 0x00, 0x00, 0x00,
  0x73, 0x65, 0x71, 0x75, 0x65, 0x6e, 0x74, 0x69, 0x61, 0x6c, 0x5f, 0x32,
  0x33, 0x2f, 0x4c, 0x61, 0x79, 0x65, 0x72, 0x5f, 0x31, 0x2f, 0x4d, 0x61,
  0x74, 0x4d, 0x75, 0x6c, 0x3b, 0x73, 0x65, 0x71, 0x75, 0x65, 0x6e, 0x74,
  0x69, 0x61, 0x6c, 0x5f, 0x32, 0x33, 0x2f, 0x4c, 0x61, 0x79, 0x65, 0x72,
  0x5f, 0x31, 0x2f, 0x52, 0x65, 0x6c, 0x75, 0x3b, 0x73, 0x65, 0x71, 0x75,
  0x65, 0x6e, 0x74, 0x69, 0x61, 0x6c, 0x5f, 0x32, 0x33, 0x2f, 0x4c, 0x61,
  0x79, 0x65, 0x72, 0x5f, 0x31, 0x2f, 0x42, 0x69, 0x61, 0x73, 0x41, 0x64,
  0x64, 0x00, 0x00, 0x00, 0x02, 0x00, 0x00, 0x00, 0x01, 0x00, 0x00, 0x00,
  0x3c, 0x00, 0x00, 0x00, 0x40, 0xfd, 0xff, 0xff, 0x4c, 0x00, 0x00, 0x00,
  0x09, 0x00, 0x00, 0x00, 0x1c, 0x00, 0x00, 0x00, 0x14, 0x00, 0x00, 0x00,
  0x04, 0x00, 0x00, 0x00, 0x02, 0x00, 0x00, 0x00, 0xff, 0xff, 0xff, 0xff,
  0x0c, 0x00, 0x00, 0x00, 0x28, 0xfd, 0xff, 0xff, 0x20, 0x00, 0x00, 0x00,
  0x73, 0x65, 0x71, 0x75, 0x65, 0x6e, 0x74, 0x69, 0x61, 0x6c, 0x5f, 0x32,
  0x33, 0x2f, 0x66, 0x6c, 0x61, 0x74, 0x74, 0x65, 0x6e, 0x5f, 0x32, 0x33,
  0x2f, 0x52, 0x65, 0x73, 0x68, 0x61, 0x70, 0x65, 0x00, 0x00, 0x00, 0x00,
  0x02, 0x00, 0x00, 0x00, 0x01, 0x00, 0x00, 0x00, 0x0c, 0x00, 0x00, 0x00,
  0x06, 0xfe, 0xff, 0xff, 0x40, 0x00, 0x00, 0x00, 0x08, 0x00, 0x00, 0x00,
  0x0c, 0x00, 0x00, 0x00, 0x04, 0x00, 0x00, 0x00, 0x74, 0xfd, 0xff, 0xff,
  0x26, 0x00, 0x00, 0x00, 0x73, 0x65, 0x71, 0x75, 0x65, 0x6e, 0x74, 0x69,
  0x61, 0x6c, 0x5f, 0x32, 0x33, 0x2f, 0x50, 0x72, 0x65, 0x64, 0x69, 0x63,
  0x74, 0x65, 0x64, 0x5f, 0x50, 0x6f, 0x73, 0x74, 0x75, 0x72, 0x65, 0x2f,
  0x4d, 0x61, 0x74, 0x4d, 0x75, 0x6c, 0x00, 0x00, 0x02, 0x00, 0x00, 0x00,
  0x05, 0x00, 0x00, 0x00, 0x0f, 0x00, 0x00, 0x00, 0x56, 0xfe, 0xff, 0xff,
  0x38, 0x00, 0x00, 0x00, 0x07, 0x00, 0x00, 0x00, 0x0c, 0x00, 0x00, 0x00,
  0x04, 0x00, 0x00, 0x00, 0xc4, 0xfd, 0xff, 0xff, 0x1c, 0x00, 0x00, 0x00,
  0x73, 0x65, 0x71, 0x75, 0x65, 0x6e, 0x74, 0x69, 0x61, 0x6c, 0x5f, 0x32,
  0x33, 0x2f, 0x4c, 0x61, 0x79, 0x65, 0x72, 0x5f, 0x32, 0x2f, 0x4d, 0x61,
  0x74, 0x4d, 0x75, 0x6c, 0x00, 0x00, 0x00, 0x00, 0x02, 0x00, 0x00, 0x00,
  0x0f, 0x00, 0x00, 0x00, 0x3c, 0x00, 0x00, 0x00, 0x9e, 0xfe, 0xff, 0xff,
  0x38, 0x00, 0x00, 0x00, 0x06, 0x00, 0x00, 0x00, 0x0c, 0x00, 0x00, 0x00,
  0x04, 0x00, 0x00, 0x00, 0x0c, 0xfe, 0xff, 0xff, 0x1c, 0x00, 0x00, 0x00,
  0x73, 0x65, 0x71, 0x75, 0x65, 0x6e, 0x74, 0x69, 0x61, 0x6c, 0x5f, 0x32,
  0x33, 0x2f, 0x4c, 0x61, 0x79, 0x65, 0x72, 0x5f, 0x31, 0x2f, 0x4d, 0x61,
  0x74, 0x4d, 0x75, 0x6c, 0x00, 0x00, 0x00, 0x00, 0x02, 0x00, 0x00, 0x00,
  0x3c, 0x00, 0x00, 0x00, 0x0c, 0x00, 0x00, 0x00, 0x00, 0x00, 0x0e, 0x00,
  0x18, 0x00, 0x08, 0x00, 0x07, 0x00, 0x0c, 0x00, 0x10, 0x00, 0x14, 0x00,
  0x0e, 0x00, 0x00, 0x00, 0x00, 0x00, 0x00, 0x02, 0x38, 0x00, 0x00, 0x00,
  0x05, 0x00, 0x00, 0x00, 0x0c, 0x00, 0x00, 0x00, 0x04, 0x00, 0x00, 0x00,
  0x68, 0xfe, 0xff, 0xff, 0x1e, 0x00, 0x00, 0x00, 0x73, 0x65, 0x71, 0x75,
  0x65, 0x6e, 0x74, 0x69, 0x61, 0x6c, 0x5f, 0x32, 0x33, 0x2f, 0x66, 0x6c,
  0x61, 0x74, 0x74, 0x65, 0x6e, 0x5f, 0x32, 0x33, 0x2f, 0x43, 0x6f, 0x6e,
  0x73, 0x74, 0x00, 0x00, 0x01, 0x00, 0x00, 0x00, 0x02, 0x00, 0x00, 0x00,
  0x3e, 0xff, 0xff, 0xff, 0x58, 0x00, 0x00, 0x00, 0x04, 0x00, 0x00, 0x00,
  0x0c, 0x00, 0x00, 0x00, 0x04, 0x00, 0x00, 0x00, 0xac, 0xfe, 0xff, 0xff,
  0x3f, 0x00, 0x00, 0x00, 0x73, 0x65, 0x71, 0x75, 0x65, 0x6e, 0x74, 0x69,
  0x61, 0x6c, 0x5f, 0x32, 0x33, 0x2f, 0x50, 0x72, 0x65, 0x64, 0x69, 0x63,
  0x74, 0x65, 0x64, 0x5f, 0x50, 0x6f, 0x73, 0x74, 0x75, 0x72, 0x65, 0x2f,
  0x42, 0x69, 0x61, 0x73, 0x41, 0x64, 0x64, 0x2f, 0x52, 0x65, 0x61, 0x64,
  0x56, 0x61, 0x72, 0x69, 0x61, 0x62, 0x6c, 0x65, 0x4f, 0x70, 0x2f, 0x72,
  0x65, 0x73, 0x6f, 0x75, 0x72, 0x63, 0x65, 0x00, 0x01, 0x00, 0x00, 0x00,
  0x05, 0x00, 0x00, 0x00, 0xa2, 0xff, 0xff, 0xff, 0x50, 0x00, 0x00, 0x00,
  0x03, 0x00, 0x00, 0x00, 0x0c, 0x00, 0x00, 0x00, 0x04, 0x00, 0x00, 0x00,
  0x10, 0xff, 0xff, 0xff, 0x35, 0x00, 0x00, 0x00, 0x73, 0x65, 0x71, 0x75,
  0x65, 0x6e, 0x74, 0x69, 0x61, 0x6c, 0x5f, 0x32, 0x33, 0x2f, 0x4c, 0x61,
  0x79, 0x65, 0x72, 0x5f, 0x32, 0x2f, 0x42, 0x69, 0x61, 0x73, 0x41, 0x64,
  0x64, 0x2f, 0x52, 0x65, 0x61, 0x64, 0x56, 0x61, 0x72, 0x69, 0x61, 0x62,
  0x6c, 0x65, 0x4f, 0x70, 0x2f, 0x72, 0x65, 0x73, 0x6f, 0x75, 0x72, 0x63,
  0x65, 0x00, 0x00, 0x00, 0x01, 0x00, 0x00, 0x00, 0x0f, 0x00, 0x00, 0x00,
  0x00, 0x00, 0x0e, 0x00, 0x14, 0x00, 0x04, 0x00, 0x00, 0x00, 0x08, 0x00,
  0x0c, 0x00, 0x10, 0x00, 0x0e, 0x00, 0x00, 0x00, 0x50, 0x00, 0x00, 0x00,
  0x02, 0x00, 0x00, 0x00, 0x0c, 0x00, 0x00, 0x00, 0x04, 0x00, 0x00, 0x00,
  0x7c, 0xff, 0xff, 0xff, 0x35, 0x00, 0x00, 0x00, 0x73, 0x65, 0x71, 0x75,
  0x65, 0x6e, 0x74, 0x69, 0x61, 0x6c, 0x5f, 0x32, 0x33, 0x2f, 0x4c, 0x61,
  0x79, 0x65, 0x72, 0x5f, 0x31, 0x2f, 0x42, 0x69, 0x61, 0x73, 0x41, 0x64,
  0x64, 0x2f, 0x52, 0x65, 0x61, 0x64, 0x56, 0x61, 0x72, 0x69, 0x61, 0x62,
  0x6c, 0x65, 0x4f, 0x70, 0x2f, 0x72, 0x65, 0x73, 0x6f, 0x75, 0x72, 0x63,
  0x65, 0x00, 0x00, 0x00, 0x01, 0x00, 0x00, 0x00, 0x3c, 0x00, 0x00, 0x00,
  0x14, 0x00, 0x18, 0x00, 0x04, 0x00, 0x00, 0x00, 0x08, 0x00, 0x0c, 0x00,
  0x10, 0x00, 0x00, 0x00, 0x00, 0x00, 0x14, 0x00, 0x14, 0x00, 0x00, 0x00,
  0x44, 0x00, 0x00, 0x00, 0x01, 0x00, 0x00, 0x00, 0x24, 0x00, 0x00, 0x00,
  0x1c, 0x00, 0x00, 0x00, 0x04, 0x00, 0x00, 0x00, 0x03, 0x00, 0x00, 0x00,
  0xff, 0xff, 0xff, 0xff, 0x0c, 0x00, 0x00, 0x00, 0x01, 0x00, 0x00, 0x00,
  0x04, 0x00, 0x04, 0x00, 0x04, 0x00, 0x00, 0x00, 0x10, 0x00, 0x00, 0x00,
  0x66, 0x6c, 0x61, 0x74, 0x74, 0x65, 0x6e, 0x5f, 0x32, 0x33, 0x5f, 0x69,
  0x6e, 0x70, 0x75, 0x74, 0x00, 0x00, 0x00, 0x00, 0x03, 0x00, 0x00, 0x00,
  0x01, 0x00, 0x00, 0x00, 0x0c, 0x00, 0x00, 0x00, 0x01, 0x00, 0x00, 0x00,
  0x02, 0x00, 0x00, 0x00, 0x30, 0x00, 0x00, 0x00, 0x10, 0x00, 0x00, 0x00,
  0x0c, 0x00, 0x10, 0x00, 0x07, 0x00, 0x00, 0x00, 0x08, 0x00, 0x0c, 0x00,
  0x0c, 0x00, 0x00, 0x00, 0x00, 0x00, 0x00, 0x09, 0x09, 0x00, 0x00, 0x00,
  0x09, 0x00, 0x00, 0x00, 0x0c, 0x00, 0x0c, 0x00, 0x07, 0x00, 0x00, 0x00,
  0x00, 0x00, 0x08, 0x00, 0x0c, 0x00, 0x00, 0x00, 0x00, 0x00, 0x00, 0x16,
  0x16, 0x00, 0x00, 0x00
};

#endif //PCD_MODEL_H
